module attributes {torch.debug_module_name = "LeNet"} {
  func.func @forward(%arg0: !torch.vtensor<[1,1,28,28],f32>) -> !torch.vtensor<[1,10],f32> {
    %int0 = torch.constant.int 0
    %int1 = torch.constant.int 1
    %float1.000000e00 = torch.constant.float 1.000000e+00
    %int-1 = torch.constant.int -1
    %false = torch.constant.bool false
    %0 = torch.vtensor.literal(dense<[-0.0462377556, 2.318890e-02, 0.0121145593, 0.0342003517, -0.0118353684, -0.0914199352, 0.0956735089, 0.0340309143, 0.0835644081, -0.0435797535]> : tensor<10xf32>) : !torch.vtensor<[10],f32>
    %1 = torch.vtensor.literal(dense<"0xA269BB3CDFF7BABDFDE8893D23CF5CBDCA3B5A3DFA6D9C3DCBD9B1BDDD1C8ABB31E663BD5DFCE43C5B0CAF3DAAC4DBBC8BD788BD73E3AA3A0004A9BC9BB13F3C7AA91CBD1F8F103DE6FF34BD8841B3BDC04752BD3270C53D5056413D797A03BD5A09C13D73E15D3DA5ADF5BC23A0B33DE4B493BD86DA76BD279AC6BAB55832BDE42711BA7C76423D36FD9A3DA0D861BD4E76A2BD6C8CAEBCB57A82BD9C1FA33D2446903CFFBF20BD2E4ABBBD163C983D206428BCD42ED1BD8008593D34C708BDCC0FD23DE3CA9DBC4CCD94BDA6E4913C22DE4D3CDB18833DE8FA113B7E2298BDCF6D86BDF954C03DAF60D3BD83B1B1BDC7788F3D8E8ED23DABC5473D199D9CBD8A92973D984CFDBCA714293D38D4CE3DD43211BDD2D3A4BD275258BD2FF07EBD4CA06A3D11D5973D666F833DEB275A3D62A183BDE16B0CBDF2BAE63C9F78923D3F80A93CA365A73D05FAB63D8E6E513CF75ED6BDB48710BD4CE4703DE508D03C3921B7BCE5EA343C1D48A23D158A01BDC51BAEBD03773FBD904C53BCC390CA3DA30A833D45193C3B1B4DBD3D79E4D6BDF9FAA53D31E10A3D2CCA943D7BCBC6BDA5E913BD1E80A0BDA3E24B3D551D89BC5452A1BD98F4C2BD289D8CBD1A48003DC5710D3B60C58C3D8022C3BD59C89EBC0B3440BD3B6A18BD132BBEBC8AF5543C4678163DA88157BD89F4D33CDF38A6BC1F8ABA3CDD34D1BC7CE3D63D8D0FA23D2684C0BDE65DBE3DA457C9BC5BCCACBDE8DE843D2FA598BDB525993D13DD96BA7E946DBCD591B2BDE1B96C3DB4446E3CE6A14A3D94CE9A3CE8B5BB3DD2DAC1BD645A423CAAF13B3C8B7C9ABD62ECFDBB5F92C63D66B38DBD0EFA81BC53CAAB3D303918BC27EBCA3C6909873D51AAD6BDD682F8BCE73483BD50369EBDEBA4033D2F41313D73C9A5BD19E68B3D360F203C07A191BC82437D3DE748903D943945BD8CB3AEBD6A1AA43D1A5F563D4CB6D63DF97CB43D308C223CF0960C3DE3A8C83DF8AD3D3D490FAF3D2FA2E43C7E38D93CAC5CABBD5C007F3D7E14AC3C179C08BD1A1C0EBDCB014BBC50D5C7BCF7E034BAEBBFC6BDEB814A3CB327B33D7B7840BD41CA4FBD47B3C7BDAC09783DD9F7763DE347DA3D72D6CB3BCE84C23C670867BDAF1EB1BDFEF47C3D451858BD017C59BCD414253D737C79BBFCC31D3DF4B92D3DAD44B13D8D19963AF992A5BC7044833D52721CBDF06497BDCCFE213DE9A4893DC1C6D83D5C42C4BD45AFB7BD4E554A3DAA19D23CA49141BD3F79633C830D5FBD07825B3DDFE6C9BC0DE425BDFB5B933CA8DE1BBD68AB1A3DF6E715BC319A3E3D7B3DB1BD8C39B73DD640A63DD850233D4CE407BD33D3B93C543B833CF8DCCC3D06A8453DF76452BDD8712E3D4E4D513D8EBF103D7A59D1BDC6AC7DBD8C44A83D760E31BDBF9C3CBC29E8D83B25EE893D43141ABD6BF5A03D2068FA3A8867C6BD96DFBBBD70D1BC3DB0533B3DFEF2C6BD751B95BDEB37743CF393223D66A18EBD9A3C883DFF77A7BD5787BABD55F56FBDF03D203DED5733BD10DA603D11FF3CBDD12C03BD19480E3DFEA0CA3D0DA3733D3B5BC33C47C381BD1B021B3D187C413D4D22213D4E4ECFBD5B42B6BDEBB42DBD50A3993D165E983D1A60AD3B3B12B4BD426084BD3E95A33C6D84683DB0D1A73DB12A97BDB8584DBD1D07B0BD313A2B3C220E36BD32130E3DD0850E3B8DC680BDE8BEDCBC73569DBD71EF73BD8834CC3D9765303D9FA702BCF43E3C3DECA17BB9F16D82BD432441BD7501D8BD30A4CFBDAEE093BD6DA4C23DFAFEC33DAB95083D9B33A73C9BC8983DA936BA3D0154BEBDA0FBEEBCE9FDD3BDE9AFD8BDE08CE6BC74EED2BCB731D5BB856AA93D97E4B2BD8374C93D259B42BACC77DB3B4B7972BDDAFB913D5B9C483D4F85B7BDFCFD89BB72E8C13D1C9DBEBD9661DEBD88A047BD75AA8B3C3AB6DE3C232D9DBDC8DDB4BD035DE4BBF52C133C693FE5BCD30DCE3D3EA6983CE2F1363D6894D4BCFC403C3C067FF6BC9151B0BD1C7CECBCD1B14ABC6EABEEBC71CC33BD52F392BD3DD9A53D352C65BC6ADDEA3CD4D28B3D42F98C3DC8FA1EBD07C9FE3CF0C6C0BD5A1B533C5398A13D40EFB6BC6D8DCC3DA615363D76E8D23D91E54C3D5E6AA3BD9112363DBE34AB3D1837CC3D11317E3CD45B2EBDDE49823D928979BD28D249BDB086C93DDE05C33D110A51BC043660BD9EF7CEBD1885603D0E9FB4BD13DE993CAFB463BD48839C3DF0CE2EBD4C384E3D82B5A23D60358D3C8CC1323CA6F1B73D994A853C103FDABCF32D78BD8E0E663DB5C0823DBB3DEBBC7F339A3D3B0B053C3FAD82BDDD9CD13D903D56BD84C9ACBD18B6DBBDB80B6FBC01DB533A99E364BDC53E9EBD43A9AC3D811AAFBDCE64B43D006AD9BB1C5883BDF86375BD9276E33A2FABD4BB061CDF3DC7CA51BDB38EDEBD505994BD972F35BD86EC7C3C2D21A63DF1D487BD2BF4523DA6D182BD9E61E53C92D419BD2308E03CC9D4A7BDD203843D9516A43D1895DB3C6DB6843CB3E03A3DCC3CB83C93E4973BD218D1BC2DF89FBD87B2E33CC33F74BDF1106A3C0E7BBDBC169AD83D4B7CDA3DA71BB33DF8CDAFBD0F82673D6ACADD3D520609BD344723BD24AF80BDE738DEBD95313ABD09E93ABDE663113B12CAE23B8E143BBC7F406C3D5DCF593CA951B13CDD4AA53D6EF981BB4C8D553DF068BB3D034DAABDC921C33CC54E9B3DE600DF3D90AACD3D3C10A8BD4DFF63BDECE66E3D80C7D9BDAF463DBD309E00BD7119AFBD1A593F3DD5EFD43DE295F5BB6F3B8CBC74B1BF3D85D92B3DB1F20EBD178536BCE727453D44B8C8BD4604613DD86F80BC87F1873DB693243C2C61DDBD17C60FBD7413D03C30AAABBD5E9CB93D08E41B3D3F2727BD7E50753BA1CE82BCF640893D275390BD89320EBDA4D0CDBD31FD73BD680E883D471452BD37A30B3DB9D5B9BDCBAF1B3D31C3B03C42CD38BDDD0491BBE4BA90BB5B12C0BD3FDE1BBD9A4D6C3C050677BB13D5B8BD2BEB84BD0EBA823DA3F4A13C8AAE97BDF890A7BD1BDE9ABD2500B73D9B386EBDF9C24EBD1EFFD5BDDBDDBD3C6BD1C53CE6D7213DA67108BCE38CA83D60872F3C3232903D88DF533CFD7DC33DCEB1C9BDA647AABD3E1FA2BD162011BD06E28CBD5151BDBDBC06F5BAC39D54BC9961903DC9AC86BDD5F38D3D4FDBB1BD06AFBC3C5264C43D2C3F7D3D82D47F3D25F9F63C1031A2BD436D8C3D70F884BC3019A23CECCEE43974BD8E3D9690B23D84FAB2BD64CEAF3D32A49D3DD9F1B0BDED8F1E3DF16BC7BD68D12FBC66096BBD6BD2133DD4F14CBD11492DBD68C6C23C5ADFA4BCE85336BD4309CC3DCF2EB6BCF1236E3D5CDB49BC925EB73DAD52D83DCDBD173DD58C513DD882ACBDF04FD5BBF0747C3DB7B8CA3DFD1525BCBCC452BD2BA22C3D99E7A7BDC6447ABAE9B3D43C636E6CBD3694CFBD6B879DBD9C8DCDBC88FBDEBD473996BCC924B03DC1C4D6BD9201C3BD7B4861BD9DFB4EBDF11D0ABD5BE0A13D1DBD3B3DE675ACBC72A2CEBC9727993DC25DD43D18ACB6BBCBC7D53D6FA469BD484BABBD527F973D7F68B83DF9314DBD2BC2603CF9A18BBC2340DBBD8DB56D3C5ABCD03C8A0A0DBD8BDC4ABD1C18AD3D308E053DFA53AD3DD7FC94BD52FC72B9B437183DDB05773DDEFA703D8CCDB73D3CABA3BD3661B9BD05C2B63D83C7D4BD4F0185BD4D4B883DF032913DB4E0CBBDD3EBC4BA65324D3DA7E79BBD5319ADBD712B063CA43B3CBC5F2273BD39F6A6BDB32669BDD05ABDBCCD05A93D9AC6C13C9BED4ABD4D9709BDB3F6A23D32A2C4BD937F893D2708F5BB58D621BDB2DCBDBD85FFCBBDD780C53D834B9EBD1E78B23D91465ABCFE6981BDCB77A83D2CBEB03A1D2A813D478DBDBC0252CBBD6D669D3CBC08013B93DC41BDC61338BD6B99A83DD865203B73A416BD9B7196BBC9279ABDAE6CCF3D56CD303CC5569CBD6AD724BB3FD8543C8C29BFBA4F418E3D370881BD4D2DFF3C72A34CBDC471C6BDC1E5C03DA34095BD4E07983DA69A9D3DAD5C0BBDF5CF16BD2199B93C45B4AE3D72AD133D1042B33DC5B0AA3DFAA516BCFCBBB8BD11B1D6BD5400CCBD41BD43BDB0AECEBDBD00C8BC652E453D5AF3953D8D77383D1E5BAB3C22D4ECBB23578EBDC38F5B3D2859843DD3D7833D29973EBD7FE4F53C1663B0BD1551D3BDB29E3D3D0580CABD88BAC13DD9C2DE3D8FEC913C10146FBD1419CC3D631A8D3DE59246BC66596C3D6B70A7BDE38F783DC28B86BD4ACFB63D121D96BD4DFC1DBDF191A9BD6084EC3C0E7B053D0991D9BCEFC7653D55F6EE3C14CA8F3D7F8298BDB42FBB3D3E54ABBC72D81C3D4787A7BD1C26FB3CE11CD6BDA91FDABD78ABF3BC40407DBDBCE8CF3DE4A9FABC7FA35B3C9A85CB3DAAC5833D5957DABDB004843C589D9E3D477A53BDE33E8A3D115783BD021941BD2CDC20BC9BBF26BD441C053D6DC9413D663DAF3D30EA56BD25AE16BD2462FD3ACBCB9F3D8786A7BCBB9668BDD4FEB5BA1B899A3DCB7EB4BCF6BB3DBDAF991BBD6C03853DE05D103C7357A63D248AC53D9986933D55375E3D8234A63C86D68FBC44AD823C9341563DE6E033BD6195FABC3A7CD3BD8872423DCA0957BD14671E3D875F7C3DD373973D5C78B33C16DBC6BD60215EBD6969AB3D727627BDDB4CABBD49BFAF3D15B3ACBC72D44E3C60E1953D7F96B0BD084E01BD9B7CC93DA4B89C3DE53F913D5C91EC3CFBFA84BD2B50D3BD8E35A73D54FF2EBDD654C73C4827B43D04789EBAE21EDABD70CC00BD5815D4BD7BC9C33D303EE4BC"> : tensor<10x84xf32>) : !torch.vtensor<[10,84],f32>
    %2 = torch.vtensor.literal(dense<[0.00727040041, 0.0621815696, 0.0808397457, -0.071318835, -0.0732734129, -0.0136894053, 0.08172331, -0.00231807563, 0.0463086702, 0.0857848078, -0.0854871049, 0.0883443281, -0.0252693594, 0.0624959916, -0.0604846775, -6.129920e-02, 0.0192371868, -0.0702528655, 0.0478771329, 0.0654354766, -0.0333619043, -0.0894508809, 0.0636616573, -0.00178974157, -0.0692829564, 0.0275840275, 0.0733844935, -0.0725834295, 0.0358747281, 0.0147886993, 0.0261956248, 0.00184575259, -0.0763554871, -0.0841291696, -0.0272006132, -0.0493652374, 0.0753609911, -0.0761127769, 0.0763918534, -0.0249204189, 0.0110796411, 0.0199937969, -0.0738644451, -0.0856683924, 0.0146184461, -0.00887771137, -0.0133501394, -0.0126274917, 0.0441888906, -0.0407089703, -0.0793862715, -0.0614756271, 0.084008865, -0.0442480892, -0.0015722703, 0.0404273905, -0.0750957951, 0.0411039107, -5.365010e-02, 0.0365032442, 6.405790e-02, 0.0275739841, -0.0368106812, -0.00592921535, -0.0787200853, 0.0763217732, -0.0731011108, 0.0878912881, 0.0325958803, -0.0073042335, 0.0451715477, 0.00821314286, 0.0452338718, -0.0732516572, 0.0884199962, -0.00303043984, -0.0484915115, -0.0395675711, 0.0589954816, 0.0359293036, -0.0888575464, -0.0142845241, 0.0513072535, 0.0381035358]> : tensor<84xf32>) : !torch.vtensor<[84],f32>
    %3 = torch.vtensor.literal(dense<"0xB956B9BD543F2C3DC3D4923DBC9B86BD43A0673BD2451EBDA008A53DDB932BBD185B183DA8D798BBEC77193DDB724EBD7741A03D2B14803D683692BDA5A7ABBC89908EBC0B899ABCCAD3B83D9373393DDA66593DF7AB993C7E3AA23CF19191BD147A403CBA420C3DEA93B23C16CDA9BC743D403DBDB4583DEA07B73D6C57B13CF84C6D3DAE4D32BD40A8243D37541FBD28D9723D7F01263D45B19D3DB6E0AC3A01535EBDC19A973DA4275ABD6CDBA43DC4F57A3D5880973DA4BE37BCC01D87BD0E49153DE3B702BDE1CDA53DAA632ABD368101BDEDE06A3D4F0F28BDC7BDF13C43492ABD5C9C4F3D62CB60B8AE373D3DC919E0BC616A013DDBF340BC26C4D2BCF8D7473D0019B4BB05658EBD324F7CBDE2205ABD45252A3DCC1549BCBBA51EBDEF43FFBC07B4A0BD0CBF993D7BFD49BDC5A9823D43AFF7BC5DCEB7BC8644CD3CB6C1843DD824483DDE69483DE20EBA3D357F1BBD7EA98A3DCD8EA2BD8986493CAD4C84BC08F662BD713A4E3DFE948B3D3BAF923D8B0FB8BD9BAE0CBD8585B73DEF63363C49D6A83D513A7CBD5627183CA11EB5BC2885BFBCDE193E3DA6ABA4BCA74C4B3D0926003DCE3A993DC341A23D8CC4B53CC73825BBCE38233DC6771C3C43D90C3D5DCB6C3D72C26DBCFB520D3D2359633C5C370FBD9E7702BCA2A19CBDEF8C0CBDBBFC46BD668AB6BD44DC6D3D39415EBD6656643D5E9D37BB724DECBC868759BDB77BA83CBE4A5BBD97E0923DC44F033DA2664E3D2A44013D0B6AACBDB1CDB4BDAFB5B03D51488DBD581C813D5C67A5BD2C5F8EBC619E5DBC5534BABD087C19BD70F98CBD1B2912BDEC321DBD744C3FBD88F01B3D30C92DBD303944BC31CD3B3D3754AD3DFEC5583D3838ACBC962EF23C0BA90A3D382C8F3DFD6449BCE0A5A0BD458CAFBD34F4903CD484B2BCCAFA2DBDA6E69B3D1E54243D55F6843C8B82973DD99E64BDDFF625BD237259B8E26966BD17839BBD6CDC893DF17D5EBD400A7B3CB016B83D9412A1BDE3723BBDD1DEA43D331EAEBD6B5DE13CB995A93C2C2A98BDEB778D3DA350593D43B8413DF58098BC4A7B64BBFF05B93D18BB38B92231CFBC1339DA3CCA0CB53D84CD2E3DA9F7A23C95E1223D03839EBD10C2A7BD7CB9BF3C08A3CABCBE93193DB5FF933DD05EA9BD464BE73C85E15D3C602AA6BDBAD7433D6C243A3D920C60BD8EAAA33D0D4098BD5171AB3D5472CA3CF3404FBD6C1CB8BD4E3CDE3C90E1B3BDD620EB3C9211A03D2F989CBD49148CBCEFF130BBFAB1B13CA6363F3CD59DA53D694841BDD1479DBAD0A70E3DFB0877BDAFBE9DBD56ECE33CCC71AFBD789509BD69366DBC1FE16EBDCC5B48BC5AED353D337359BD0EF92ABD5280A63D3E8BABBDA650013DE6B5683DA22B363DC7AE7D3D7075DA3C85D1393B74CCB0BD50F4123D0166F7BC14D790BD17261F3DA0CC8B3C08C9083DC814AA3D5E4F85BDAAA313BDF720B9BDE11B463D77062F3DE20DACBD62BB523DCA12BABC224BB5BC45E0BE3C764EB0BD8B9F863DA5A00A3DEFBAADBCE35C1C3DA88822BC649083BDCC93823D4825CDBBA0688D3D8DCB803D54EC45BD3ED31C3DC570E7BC5FB776BD6B74243CF9D5E0BBE18293BDC9F780BDB7DA31BDC50035BD3D71ACBDBAFA603D9B2D813D66EB87BC2C4489BDD3C99E3D242DA63D3DA510BC03DEAF3DA6D7A7BB7BF4B43C8621AA3D31B72DBD6DDB243DD50695BD252EF33CFA19EA3A2BA2F6BBE51EA43D0DD8A53D3C0E47BCFAB3403DD76D8E3D71A8B93AE9EC17BDD8879A3D4E979CBDE06A113C6EF1923DF1F52D3D6FA663BDFEDD39BDC6FD593D3001063D3CFA473D87B9683DA9FE35BDF224593DCAC4AABD9C927FBD8CCB65BCAAE76CBD5F1FBF3C3DD144BD0E6769BB4BB6393DBC08CABCC4F580BD0987AA3D73B0AD3D198B5A3D70E51E3D2B97283D136CC23CB631B53BE5393ABDEFB480BD449D91B9FBBF6DBDA136AEBD0DDBA13DF02F94BDCF07AEBD350566BD0B236C3DB2C68BBD41BEFABBE1013D3DDE31D1BCF5DCB63DE5BE07BDC512B73CE39C093D6C340ABD998699BD614636BD0BD6723D767F49BC4592083C400B893CFAAFA5BC4B712EBD222B893B7AF6463DD6A610BCE73B39BDDA2A9E3D814FB3BD4A7F4DBC9D12F73C0274403B6DA94CBDE8BBA3BD394B2DBDFA784F3CBAAA72BD7B2F9B3DAD1DC8BC41F32CBD0195B93DD51182BC87BC5D3DC92A7C3DAF63CC3C5AB17BBD23AF1FBD9A0830BD8980033C6FA4823D8F23513D523190BDC507863D69DE37BD2433953D282AB5BC58CC4FBD90F956BC590008BC4BA8B4BDA3DA6ABD0BA59FBD89DFEB3C1F3D9CBCA48600BD5DF5043DBCA14F3B941BACBD5B2E4EBD89801CBCAC7D7F3DDC9956BDD75977BBAEC2FA3CE90C993D7C43F3BC4668913CCBAA39BDA180883D05FB9CBD98147D3DB216EFBC91B7373D4E0DADBD60108ABC63B08ABD441319BD37EC3E3D1DC302BD2D4E973DA10941BDF3CB0A3D244EF63CC43D7DBCC464593D21A2BABD43CE87BD29D2A63D8E2ABCBC61A31ABB3FED8E3DC59B77BDFA3AACBD30D0483D541479BD2225D1BC3441E5BB5E0B51BDC549A7BD88183ABD45AE1F3C39F1AE3DA69194BD08AE27BD2D1462BD18C7173DE2673E3C1948713D639D01BDA666983D183E81BCA4D7173CE74A2DBD0EA5563D0AF80ABC70D4423CD584FA3B4B56AABBEC91BE3B5FAFFDBBB003A43D98B59FBCA497B8BDA901B23D33AAADBD3DA6163BBC043A3CB686B9BC535DA7BBBDA58BBCB41A83BCBAE1A5BCE39B233D3D7A6A3D8941AE3DCCAAB33C498B40BD16619D3D3374903D562FA93DFA0DA73D8EFB4ABD6E2B11BC47D6A2BD6D7AB53D63146E3D23083F3B47F8B9BDE393B83CC2D2C1BC72CF79BD9AB31DBD7BA6A83CDEFF93BDBE405A3D81D46C3C15D1BFBC87A31EBCE4E5D93CC935A8BD32317FBD3BB68E3D862405BD04BA7C3D5E4A7B3D50ADB23C02FB8CBD16969B3CB02081BD293E52BDAD611EBDE8DE603DC4B28A3D642C18BD733B903DB682C2BC6B638B3C5AF4C93BDA9B5F3CABB1B73D4E20063DD0B49ABB4F95AFBD96D59A3A97E1523DF15DCBBB1A0EE53CF5E14F3DDA8094BDE1C7B53D81CF8FBDB3FD57BD2E46233DC2BCB43DE251893CD53B43BDA4C982BB2E3DEEBC69B0303D774331BD1DBAC9BC5892B53D4E87013C4D29EE3CDD166EBDB45A8BBD0CE7873D9D83FE3B2D9CBDBBA28DEDBA2A53C6BCB92A5BBD6711A63BF715C2BC7D2891BD7D7C8C3DE08E903BA1BCC8BC99DEA73DE82777BCFE68B23D21AAA5BDF1CA9C3D9C384CBDB370B53D77A126BD842195BC48D688BDBF7D573D057D773D06C80EBD653A9E3DB727F8BC5D0C36BD6851A8BDD968203D0E6D74BC70F3A53C4695B1BD34F8193DF596153DC89DB63D2D81A73C9010873DCE67C53AA80BA8BC6EB9153DC0C419BDFC5961BD8E03FC3C1F2C673D1B0FB3BD68F1F63BD4EE843D86638CBD963B973D71A0673DA05D82BDAB35AE3B45781EBDFD25063D34CD9CBDBDA757BC757D2FBDEA2B553D62C096BDCE3FEB3CC918A63DEF9FB73D4942533DCF5D963DEE99EB3C7167BF3BFA34523D6F2DCF3AF90F0CBCF072A4BC010FB0BDD910EABA0EAB3D3CB7CB5A3D2D2DA6BDF0DB12BDC7D402BC1D8EC33B6021B93D282046BDEF5D7ABDBE5FCBBCF4FFABBD0230933D5683C13CD6A98CBD3951C63C3DD391BC1129A9BD10D1233CABC1A6BDDCDA0939E0E16BBDADE6FFBC900369BD1CC324BD9FDD293DCD455E3A6ACF8DBC790096BDF202AF3D838493BC0CA885BBCAA397BDA639B0BC5F56C2BCBB49A9BDFEBF24BDFC1C843D486FC63CAB937A3D47BD7C3D9F46B4BDBBFF9ABDA454B9BB324F1C3DC9698B3CBE41873CF628CFBB6E329DBCC18E0B3C59B80FBB1B608BBA521A793DC13F7B3D58830E3C31106C3C13D5053D553AA63D610110BAC1CB06BC03B25BBD8F1815BD4AA20ABD32566FBDCF37763D55285C3C93DD8C3DEB0DA63D8EE928BD522878BDFA4F68BD16FDB53D7B7E7B3D44EDB9BD2D46A03DD3F79FBCC510A9BD09C6493D2EB2C23CB2AFF4BC28B6473D2B338E3C54AC2DBC4D15523DD1DD9B3C9CF02D3D08A680BD59AA32BC90ECBFBCC73438BD7042B6BD61BCB53D1564B33D12F8453D089692BD30AA813DEC5E403DEFBBA1BD473194BDB5E4FDBCAC9A8EBD6548B5BDEC3299BDB3A009BD255343BD4A2483BDBDA390BD2A0EB03D9CC7A03DEF15113C1121B03B7A4DE8BC4BAA6F3D884063BD471C963D52E7903DD8F73B3DC62EA93C06FF18BD10036D3BC309F13C5B247EBCF6DD25BD1CE6A13D6D1E8DBDC6AF893A48A15BBDF33FA73C145FAD3C4BE78ABD30CBB23CDDED073CBECDA3BDCAC4CC3CF2259BBD546471BDB70984BDB1F54E3D16B3DC3C3C802C3DD884CF3CE403B63D2E5182BDFC8FAF3D865DF3BCF340B03DD239CDBCD0977EBD527299BD23A1AA3DB07C6C3DECED80BCA76C84BD3C3898BDF0E3A6BD9D46833BFB9F703D718FA1BB20EF7A3D64873F3CD76844BD9179403DB149263DF05AA33CB56E1EBDBB54BC3C7B63AD3DD53BACBD7529063D61B00ABC83B4B6BDA8BC063D74BB0CBCA1E3A0BDB6518C3D154F593B045EE9BBB55FA33DABD7F0BCD7038BBC876E5E3DF15F293DBDA21DBC3F44B83DEEAEABBDEB2FA3BD9843F9BBE0813A3D55D8043DC15B103C60CA1CBDDFEA34BB1AD580BDF7B977BC0760873D8ED4843C08BF9C3D7F2E8FBD4B95A33DFC3711BC46ED84BD6025243D1F9A203D28812F3D24E1203D7EA045BDF9A5C23BAC32AC3DD8B98F3D329AD3BC94F34D3DC1E886BDB68688BD707332BD3B04A83DA834133D3C133DBD2B0C0E3CFF99823D637144BD13CBBDBCCA2D9EBDB6537E3D7A8871BD85B73EBDEEFEAEBDE1F79FBD14862D3CC8E96BBD61B9253D4BE33EBD87D92A3D0901213BFF51483D3603AABD7CCF73BDD52D39BD677E00BD104396BD1BE4623C736B24BD001C9ABD2FEDB63CD8FF293DA70B003DFA9A9E3DBC81393A48B54FBD01FF95BA10DD9EBDA30E7D3D2B54583DA5EA87BD175B53BCAE785A3BF6D0513BFAB7EC3C52DAF2BC5C6DA53C905D27BDA109643DB62D453DA9024D3DEF3F293D89AD063DB446AFBD0933CBB9CDE76CBD2D8D34BD82940B3B8B86B5BD736984BD56C958BD1A75A53DF88D04BA6D89753DCA712D3DDFE407BD12E981BD29FB08BCC1382B3DD314903B4BF6A4BD2855AE3DC21189BD280F6D3C2479A53DBF9F3DBDAF59943DA71DAABD9939953DE405713DF8995B3DB010A53D90979FBC5C2D54BD16290BBD4DF680BD5ECBB63DCD9C4A3DB68EDCBCBCF5DE3C634D9A3DAC6940BD5778C93CB9E400BCBEA7AABD5409B63BA128AFBDD3C4A23DAE2404BD59B40D3D25361EBD2C7BEDBC0AB9B9BDBB93B5BC473B053CFC750CBDC037A33DD87878B9D5F3AA3D0E94A33DC9E105BD4601963D01C0B9BD9E976CBD137344BD46C5A33D56231E3D23C44B3C0DA08A3D40B856BD025F063D5976FF3B0B4E82BDD194243D30629ABD42D1B4BD50FF4E3D31312C3D4890A43D08FCB0BD5E2AB5BDB687D8BCC1D7EB3C9CD08D3DEE6B8ABD1D97963D4EE2B73D805B253DD8D6253DC64EA33DAD15B63C7D735E3CB2C8373D81B8ABBDEB992C3CA3C985BB6C4B9FBDC67B80BD85D679BC55038ABDCFBB9CBD15778C3A54F5AFBD8878573DDABCB43D715A85BD831D89BD66A39F3D2CE09DBB363C9FBDB94459BCBAB6ABBD2B348CBC42F28E3CB265863D4D74D73CB733F3BCC50B433D314B873D654A3ABD98F0643C666F6E3DCA92AD3C03D3833C326DD5BC13C797BC6905573DAC3071BC2A5A0CBD08A6F8BBC8DF71BD33A208BD09D4E53CC28F20BD72F6633DD3D89F3D47DC3B3DACDF52BC7ECFACBD466CE4BC77FB9A3DCE5B6A3D6AA32C3C77D082BCE5458ABD3E2493BDBD7440BCDFE58BBDFCABB53D524FAEBA4B60BDBB9E1501BD7DD2003D50E4AC3D8A0C5ABD088E9D3DC7B348BDE27A9B3C1A78A5BD75418DBD5D6423BDEF5BB33D0CD43A3B82ECAFBD7B32453D18C09CBCEB506DBDBA29483C0A0BAB3CEE1A03BD6A7F8F3D153C663D637FC1BCB0EF03BDD67F503DCFA88FBDB73DB2BC91F5193B56600B3DFAFED0BCF4D1E0BCF8B4B7BD7CE140BD1A8B99BD133C863DC626DA3C7ADC36BC10FC76BD53F4393DDDC6A43D9C65603D6559313DADC54A3CF879803D95258B3D1F619A3D7765953D1146AFBD82F6943D00BC7C3CAC0262BC5C6A933BCCE2713DB18630BD83C2B63DAAB846BDD9C2C7BCFC396EBB494A7EBB782C5EBCCED1A5BD9DF937BD0639973D1552ACBD48EA51BDCECB0CBD0584053D566C7BBCB526B6BD26E790BC572491BD34839F3D2EC86F3D0AFCA43DC43F813DE7DF9ABDBDBBA13CC36214BD144CF4BCF0CE343D358134BC17DBA9BDEEFEDE3B7159AABD8ED6053DDD8A663D9935B73C8E71CABC650D303DAE3C413D2F36153D64D8A63D4B3BACBDF4ED26BC1395893D7149A13D8B4D2E3D29B591BD4763B53D4EFB8ABCD478953DDCC9A2BD35EC8FBDE99BBFBC8FF9B5BC5A3E80BDBAA950BD58FA4DBB1B645ABD3470343D5B4C6ABDDC4DA6BC2135843DB0F850BDF18BDDBCC6FCA2B94BD784BC9D8F853DCF18B93D6A4305BD31A18CBDCF6F923D8739043DE84AC33C7C32B83CED82053D07E0483D8C4C583D3FB8903DCA4F003C2A0E8B3D4450C6BC6081943C47A5703B661DB13D6758513DBAA6773DFD48863D5A6CAB3CB62C8CBD4A6A013D268B99BD289C6C3D8B27323D1FBD2C3D3F2D00BDC84C853C5627893D335F923DE24F133CD18467BDF488E83BEAFA83BD7BDC773DCDBCB33D1C24783D6DE40ABDECA77EBDAD3AFB3A6DF68F3CA29424BD07E9923CA7ABAE3D568B6CBD2B140B3D7588673D25A1D43CE670DA3C7514303D24C59D3DE4742CBDC93D8BBB8DF7DFBCF0C8F43B86636F3D5EFE363DB3BA393CD9B7213D19081A3D98BEB8BDBB114CBCC6EC133DE164723D668B4A3D5F25B7BCC409B53D9F076FBD0B817A3C9653E9BCDDDBB13D282D84BD14D59F3D61B898BDC70990BBBF878E3C2C2A533DCED69DBD92E94D3DC4A68D3DE9E224BDC599413B1FDF3CBD85590A3D2D5F87BD8350793D082B42BD4D65DD3C12D1463D009D103DCF7397BD72AD7ABD57E14FBDC21299BD59CE973D4B640A3C1BB6873D4AF5BB3C71E0E93CBAAD363D96D0593DB780093DE1B8E2BC5B180B3CE08A9CBDD98147BCA7A57A3CC5DA45BD362C98BD6AF144BD0C21D7BB3811B73D381A603D77EF9ABC2A2723BDAE0324BA08CE133D24C54B3C95B5B2BD2FD8F1BC0A615BBDCD62B0BD72F1CA3C451B413D8A3798BAE6A8403D625C9FBCFD4535BDC5F781BB1F7187BBE5C5333D2A2F7BBD7EEA9BBDD1145BBD9C40653D852C273D1DD3503DDE24B1BD5B69A93CD6503B3C88B4FA3CDEA912BD3A45B4BDCEE5DE3CA2FE2CBDFFAE413DB744C9BB9880863D3D0B293C66CFA0BD58064C3D4FFFB43D636960BCBC515D3DF3A1193CF5E38ABBA11020BC97017CBC8D91003D519C423DE9FAEFBC20DE293D4813953D403C703D7842CDBCB1AA3D3D384B763DB7497B3D1560ADBD9DB765BDF37C4C3DC51B643DF535DCBC01A20A3DC4608EBC141AA2BD35C19C3D5D6A933DB26B94BDC46DA0BDEECA763D8C4FD83C60BA98BDF4CE84BDD61EF8BCEA9C783D012A0ABCD8AD37BD47E9E03C3C01693DE3FC49BDE737A03D8D5E143C99AF36BD66235BBD5FDE7CBC7FB524BD66C9443D727949BD29C862BD5F94A33D35B9AC3CBB2C3E3D7B000ABD63C2423DE7DE353D5C95C2BC68D431BD15C461BDDD3E0ABD74FD923B0F4A3B3D97420F3C08D5F73CA87AB1BD85410D3D8D6114BDA83F5CBD8D1EA13D3B858FB9E5EB983D5072AB3D5A42803DC18ADA3BE627AFBCDDA0B5BD5F5382BDC282A2BD5128953CE12C5B3DD9B386BDC40AFF3C181FAEBD6D2CAC3D27331EBC91801F3D30E8A5BC26F4153D77BA373D41D3B93D6A06B2BD4672193DBC9FF53C5A33C33C81DE033DD7E36C38951E9DBD53A3B4BD94CD18BDC3169E3BB9634A3DA9DCD2BCFDEE06BCA6A9AC3DBF42843C9A369ABD7374DB3CAD2E873DE0D29C3D968DD73C5CA992BDC7A353BDE3DD07BD27667B3D338BF23CEC2772BC792F9C3B071BAB3D6753B4BDD2D6B03B8CA56F3D95C88ABD69CD85BD2A5699BDC5E7AEBD2A47AEBD2716CA3C8D7399BC7EB167BDDA37123D21D024BD4599B33C91919E3CD078D23C73EB913D747CB6BD8280A2BDF65A47BC043F593A0F46F93B834E973D916E91BD092A903D5067AA3D3E24B43D6E17A13D93070C3CF7745C3CCF628DBDDAA7363DB3D8853C22FA83BDE5B8A33C57BF4A3D3D296C3DA1D0A73D1E129A3D80F232BD216733BC1DC80DBD1BB4B6BDF55C7B3CE3A8A73CE7EC91BD54030F3DA44F93BD1581513D206B8D3DDF6F3BBC3392433DBF6BB23CEDF497BDDF8426BD428018BD932B133D11CAF0BBC278253D0ADAAFBD6A44F93CD1CD99BD847CE53CF82350BD933CB0BDF7EE3EBD0962B1BD41D674BD10C99C3C8FDF16BDFB21973CFB8880BA8DED2D3CA0D5D0BC779C423D06DA8C3D3905333D102D833D9B6BB83D6BC485BD6EFD16BD99F993BDF130F7BAD237B3BD80E051BD0C7D40BDFD3200BDA8B20F3D4AF93ABC06592F3D44628B3D0DBF37BDB377F6BC1C7A9BBC4E7EB03DB98F633DF2E366BD0582B73DB0B38FBD689C02BC4A3B733C297A1A3CED042B3BC13C713D8CBF5FBDC0FE4DBDD33394BD8E41C23BC6C908BC579FB1BD6FEDDD3A7EEC773DA1869CBCAF63223C598C99BD10B58F3DEBE7A83DDFBEA23D820E84BDAC98633DC4D73ABDE3EE6CBDFEE23ABD457616BDFB84213D095B893C7F53E3BC0EDF3DBDF00CF33C646BA63CDCD9F03AF496373DD0F919BCA676223DBFF4F8BCF0F50D3D19A65E3D81BF213D72F3943D1CF26E3DC4DFE83CAD25563D89CF193DA5B490BDA37DB8BD6BD38EBD377295BC309894BDA246CC3B0C85873D46BEA1BC8243143D662E7B3D590588BDE09DBC3C5163803DD13D073D00D0BA3DFA98AE3D30C98EBD4866B23DF567B13D4E66AB3D9A6048BD3B0091BD37360A3DEEC3C33C8DEFAA3D224A5D3D8723873D255FC6BC3807C0BC32F3A23D00BBBEBC5E7C6C3CBC3037BCE688ADBD05F8F13CEBEF9B3D3B5760BDD7813ABCA8E78D3D6BC0173D652B923D21662A3C0BDC8CBB892C13BD6E940C3DBDF4A1BDD70A09BDEF0E01BDD6B80EBD9AE0CD3CBEED83BD231C64BD5AAE9BBD9D7CA13CAE3D2BBD64CA8FBD87C4B73C9A08283DC2121BBDD59E7CBD1C24F5BC54DF043DC0BB8D3D43E11B3DC5499ABD5B7C423D478DB0BD3F7030BD3BC831BC0943A13B4C1A8BBD174E083D33E6A8BDF2E5873D1D23DBBB0E4D103DE806A63CAB03BCBB31E3AFBD8847B1BD013518BD1E6D8C3D52718FBDC5DBB9BDDC0BA3BC6EF27CBDA814AA3BCE8A74BDB2F6953DD63C15BCF459AF3DBF398A3D3A3CCC3B6921B23D6A1B1DBDC2349D3D328437BDB72747BD1B8502BD815498BD75320C3D065E5DBCC2B81CBD3CCF6C3DACFA10BDE0970CBD0FD705BC5D5B56BDCDAB85BDE101A13C0F50D7BB8DAF4BBC72FB85BD5077B93D67A2953DF919463D958482BCE191743D124B843DA52B48BDB488573C20B78BBCEBA26ABDA4062D3D7F65ADBD70B2FFBC321F4F3CEF72A8BDA1D64DBDDC70913D1EEE84BD79B2863D1BEB963D34DF9F3DAD56893A9916B83BC0C0B0BC4BCF4D3DFEE089BD4CB690BD20E7C83CA6622DBDDA4D083D63F2A73DC496EA3C716696BD919EB0BC834B713C93618DBD098B8D3D4C6C213CC2149BBD826BA4BDF938EFBCDC700B3DBBEDB43DEB5FA7BD7F6FA9BD2AF2B13DD5529FBD241524BDC394A0BD94372BBD100D85BD529DDEBC741033BC7AE6A63D02C171BD1E57123DB93783BD002EA3BCB3F3B43DACB18BBC75CD8E3D217043BC626A7D3DAD06AFBD3027873D10C997BD5D45A63D58FA823C4073943DDDB8483C6B7A3FBD4997923D38AD0DBDFB63573D79C508BD376668BCE1093EBDB1A603BCFABB2B3D797EE03C9B68153C444EB8BD29D3743D5364AEBD739B6CBC55B6993D0CBD5FBDA3E4253D7176603CA5663F3D917397BD10303E3C740BA7BD26C2FB3AFB8EA6BDB24D533D84FE4B3C1F9696BD13FA4ABD21367CBC88AE4ABD78958BBD4D44E03C6E9C6F3D01404D3DEC88BABD245976BB9FDB243D406AB6BD10B5B6BD8F0E3E3CB4BD79BDC9F880BDA1F3563C2099E6BC812CBB3BA09E4ABD6F63E8B95EB0D73CF0AD9BBC15B3DABCC3A6A83D86709B3CA705953DD1DCBC3C1803DEBC2EB1DB3CF089B33DD2F7A43D7EB941BD763FACBD8AE86F3C321688BDF6A685BDAF21A3BD2DC38DBDDAAF843DFE5283BD69151C3D1BFFA13D97A66D3DCAD1B43DFC5D4E3DC4C01F3D821C993D7A578F3D339896BD4B6E1D3DF62509BD1FE6173DED10AEBDC67C243C61DBAD3DDFFEA8BD851B1DBD0EF52BBD050396BC6B06B2BD7B0181BA664A893D7A5D76BD110093BD911A973DD76C0EBDD3CABA3D2EFE513D2814243C683292BCB9247FBDCB5B4E3CCAFF1F3C141D8A3D08870C3D2E8AE3BCF7D31DBD270A87BD852DE93CD66858BD5C328A3CA21AA03D9E629D3D966C84BD50AE89BC124496BD380539BC72159EBD0B76B3BD2E3C7ABDB8F1B1BC4BCC85BD27109DBC4FDAFCBB4FFB443C4930AE3B86AC113DA643B23C1585823B3C3018BD9BF692BD38531B3DDA4D0B3C5ECE8ABC835BC1BA6B3031BCF98352BDE721833D4F98AA3D52A9443D74A5853DC6FF8DBCED7DCFBC0C2BEABC9281303D7A7E6C3DE634F93C76108C3D1D7DDF3CFF810A3DE4B77FBC1E04AA3D84737F3CAA6A193D9963033DD9C15EBDE611833D36F8B63D511DA43D9E7FA33D2264713D43FBB63D58E0193CFDB7BB3C976A3FBC9A4B923C951F8FBCE5029E3DCF39143C45278E3D8286BABDB42D43BD01E6A23D3778693AD2446C3BCFC8ABBD851332BD64AB94BD5D34293C13ED463D9FC31C3D49001F3D98BCAB3AD6A89A3D6A068A3DFAAADD3B0065E9BC5C7B8EBDE5706E3CA2E9DC3CC69C3EBDB2D0743C1C62E5BCAE4F933D3BEFAF3D406BA0BD0D9D98BC22EDAE3D7209BE3AD256883C9BF5B03D64FA2A3D5D65B73CA71C893D9B06943DEEAA28BDA973DABBAD29783DA3F1C93CB2B35A3D6F38963D42FDA4BD1AA0F5BBD7584EBDD837B33D07A04DBD848D53BD9927FB3C06B7513DAD728C3D28E5623D5B6EE93B5A382BBDAA7DBDBC2FE44CBDA97C2F3DE32735BDC3648C3DBFB563BDF1ADB6BDBEC95ABB74888E3B78EA9C3DEC44E53C64874DBDE826553C020BD63C4CDA04BD244C5DBD7A180D3C0A90373C61B17D3D83A075BDE620CDBCB67244BD535882BDD433613D404D763DB87A673D1B66303D7ED0633D4F81863D688F0FBC7C95BA3D719C48BD76E31ABC07FB9F3D37FF943CFE2F4FBD2BF3433CD34EEB3C25E7723D0055C23B48947DBD74F910BC43ACC6BCCA58F43C66C1B93DA82EAFBC71121BBD42DC403BDB45A23C066C363D64BB963D1EFC323D3F6A33BD0E406E3DECC2863DCBD7513DA35731BD0B4EFCBC940111BD6D4CA63DD975F93C5E90B6BD3161973D4844C1BC585D3CBD9286E6BC505B69BDF941AB3D92278C3B07D8F9BC2C3C383DEB87B0BD493D823DCAFEA33D29FF8A3D464120BD6054C6BCEB2656BD80343A3DE78911BDF866413C21B1B0BD55F5483D937F703C2BFAB2BD31CB87BD2A85A2BCF07A4C3BB05881BD9C3F75BBB453873D8D131CBD38927EBB0A58D5BC116CB5BCB09BDA3C06DBAA3C38A2513CF7A5A6BDB9065FBD68FA7F3D153AB0BB7EF1B03D9C37943D9D9F2F3DA9FD33BD288B4DBB65CCA03D4219973DEA33523AE26F263DFF3DA63D139A8E390303A23A9A6A913B5635B63D999778BDE7EB04BCDE8F953D47D597BDE11C93BDB0E04FBDF5DA5C3D6930043DBF61A1BD91B6E63CAE1097BCCE68B33DD4829C3DBF17C5BC6D8585BDE7362B3CF0EC2D3DF15E18BD616461BCFD53AABD3061E63C9698BE3C768E563DD32D29BDB8E528BC78B8993DA7AA8F3D467D87BDD12397BD2A2D063DC19893BDEC9C613D3AAC543D0AC1B43CAA6B81BD3C8104BCDEEBF53C67C983BCC71918BCADD363BD638B99BD2936123DCD6A84BD574776BD5797BDBB1EDCD73C513F9EBC24F04FBD931987BD6478CBBC42D4A3BC654E5F3C15E7B93D70489CBCC31F193D2FAF463DF5052DBD39D3083CCE7D9D3D22FEBF3C2F93ABBD12795BBD69A3643C26EBA3BDFE85B73D889C333D5F82803DDED10CBC0A7D3B3D13CE9D3DCAA2D13C3A5076BD2D04AE3D21C0B03D6131243D124A5B3D6EC2873DFF3D853D7DD2FB3B94E5D83C911277BD42B32A3D8BC0AFBD4F6263BC33D2E1BCB9B20BBD285ABA3D3C1F83BD9F630BBC923154BCFB83C3BA1E074FBD2300063D106706BDEEE68DBDF54D2F3D21DDB73D5DDC9EBDF2876B3CA36C4A3DAB2D96BD5DB79D3D142B35BD7F9223BD575F58BD24D1743D9ADD773D532534BBAF993BBD61C74BBD2B2E893D342815BD6AD9AD3D57167ABD882994BD04D2893D41A83EBDF95629BDD8B4AA3D9B6BFE3B8CDC3E3CFCF29A3D97F3B63DE418A7BDE9162CBD79FB173D50D777BD751F093D9AD3B7BD0D3E4FBCCC1787BD9AAC5B3D62FF7CBD45A24BBCA617B0BD4712563DBE99DBBC7F9014BD7F561FBC17B8AABD490F81BC98C984BD9D2A8F3DF1A5513D0EFA33BC088B84BDE4189BBD3D01CBBCCF95AB3D3D2E74BD897E8D3C870F453DBE085FBD83B0133CF3FB28BCE86CA6BD8582433B6338553C0876253DBF23283DFFFAF0BB35CE1BBCDA03A8BC8587AC3DE3FAD93B9600FC3A9D7830BDD199A53B7B4D5EBD97620D3D1B93B3BCBBB181BDE330EABC1E6B84BCF9884F3D76B472BC2E116B3D2DB6983C4069A5BD8E96CC3C4551A2BC136E353DC5BD043D3B59C4BA91530EBD05CD42BD76ABB0BCCD12F63CBDF7723B3674AE3D914F613A07FA2EBB1DB8993DA6625EBC415AE0BCD60CA93C22201EBDC34208BD83FE8ABD4E3D39BD477217BDE85C943C62B658BDC2DD1B3DEE15B3BCFE607ABD9966F13C7C7E5D3D25DB293CFCDAB73DD57CB6BD7588193D261468BCFA11A7BDD2573B3C0E941BBDD9FCB63D087BA23DFB9410BD70FE33BC5EE990BDED17443D160A8EBD3939993D62D56FBDA4A7193DE2D5933D9FB0A5BD21ECA0BDCD1486BD55E96DBD752ACB3C28F4EFBCB922973DA8680F3C5C11BABDA92E4DBD232611BCE8EE96BBAB2A003D1EA9E1BCA2C0EE3C1E5B3FBD185398BD2E8D993DB43FAFBC25E3BB3C5FAE2A3DB629D53CE4A393BC5785B93D6385B93BB0BAA93DEC8D67BDCFACB53C26246CBD56A520BDCCB0AEBDD9E92ABDD8BB64BD30D43F3DB93E803DE8F93DBD276162BC22E1953D11EB4D3DD632343CD26E453D60CEF3BC13CD8ABD9476DD3C50901BBDEE044D3DBFA690BDFD1A703DE0DFA0BDF73800BC96D5EBBCA97E3EBDE9C6B13DC191A339FAF1B3BD7031E7BB1CD4903D9F7817BD0D37A93D87D0B93DEADE3B3D3081593D5789483DA7FA54BD420A4C3D44DD213DB546ABBDB116243D4AC095BCDC95DBBC3DE7B33D7B6F4F3DD8A4AC3DAD1FD7BB8DD9E63C2EAFFE3CB6EAB93D087DAEBCFE51953CBC11F0BCBC2682BDCB4B5F3D0D7DAE3DF47DE5BC682183BD6BF6A83D244C88BDF0430CBD439F37BD1F25B9BD4BA37B3B3BCBC6BC1B5593BD39FBFEBCF93723BDA0F38E3C6537923D429F163D724174BD4A4D233C6484B4BD725A0EBD0BEA833DA14226BD00945E3DE72A5ABB408E43BD56053DBD282F213D870B873D038A64BDEA6BB43DC3048A3B5E2E52BDD155B1BD6B60EB3BEDD2B4BD531BD6BAE6CF46BDEB9348BDFD6920BDC81F77BD3E72EB3C86778B3DAE37ADBD6959EBBCF6CC483DEA92973D76F9673D7E37A63D7495073C243C203DAAF86F3D7F88413DEAD05F3D6A71CD3C842079BD9637923D811AE43CEE4820BDCA6CAC3DCD742D3D643EA3BD9657C1BCB44DB73D01D485BD831D83BD8301993C65B33C3D93D69B3DE832A63CA1A07D3C688BA9BC3FA2993CDD38513D819DADBD8F9F6C3B3E4DA43D39EE89BD7C58393D64E154BDBEE9A13D7B6C0C3DED69803D440D833D703B65BD6005D03C4D6783BD480B96BD514B0BBDCED8E83C241E903D2B5B8B3DCEC5453D5DF21A3DA638073DC69F413D5E2096BDA39047B995F1B63D951AA9BD834C5FBDC98AEABC0E8551BD730D4BBD4DE4123C5FC6123D422090BC4C004C3C621C31BC27A5A7BD1E60A9BD718BF33B9B8E6A3D7FA042BD2F0B1F3D402C923DD3508CBDE261BE3C75B2B13C6D37923DBFEA58BDE598923D55AD57BD38C36CBD579216BB23F9823D403106BDFE4A09BA121E953AC2D3DD3CD462223D4B700DBB8AE32E3D50E9D93C5BFD1F3DAB0730BDD3DAF2BC8BAD643D3A07FF3CFAD7BA3D0EFE743D26CDA7BAD1C92E3DFD0833BD2C3457BC65185A3DE4DBD4BC0B302ABBCAA58BBD33B7A33DE05C69BC0AD8AC3D4D956D3C526520BD522942BC3E911C3D7A866C3DC3FDA43C1BAB84BD7DAC70BC323C15BBF4E496BDA4B85E3CA1AE913DEB67843DE72A76BC889BA63D16443DBD7D508A3D8039A4BD27FA55BDA4876CBBD00B3BBDF75839BD5A5C633DEE0F023D9DFC093DC54A12BDFCE103BBC7DB033C6D06B63D90B36DBDE5E37DBD8519D9BC91F194BD63B6FC3CACD309BD65012D3BBE70AC3D78D3153DCE7F0ABD090BAA3DB2B0223DB8B3913D98EB153DA379B1BD0EEE49BCD133EF3C7D8B913D9E434FBC8742C9BB3D47CDBC04673E3DBBE298BDEE41B83DAED1713D33D36E3D06FD5E3DBC98C53A40C4A4BD279B4C3D48C62FBDE068A1BC284BB2BCA55698BD022727BBAAD8993D43F9A73C7ED465BDBD29B03C8BA9173D83E86A3C9EB2BCBC06536F3D3FD978BBD488AFBD833486BD8F4C903D831436BD858F80BDFD55B1BD5D6E09BC10907E3D9391FFBCC4EDE13C59FAB03D576C1D3D9F2514BD05EE063DFDFB863D3EAA0BBD25D2B3BD8D43223D3E6F763D973CAC3DCC6C96BD8134AABD4E23BBBCF9EB863DED21D8BBC8B9BF380FF5893B1169633DFD23E53C626FE93CBE085F3C84FF803D6B3B57BD8A95763D4D2E2FBD9CD6A03C07DF583C731F063D81DBED3BF1CC2A3D4A2F1F3B30F488BD30F1A63DBF6D013C18783D3DB6F594BD1BE3943D10899DBC0904F9BC9E470A3D1C4168BC66271E3D8DEF26BCC5EF9CBD910F0EBDB8FB88BDC1A09CBDE7BB343C3CDDBE3CFC04BA3C5663F1BC518948BD32CAEEBC6C3169BCADC2603DEB6A8B3DBF87913D6D04F3BCD41D423DC754823D7F0A923D1271D3BC5B52A73D90D0AD3D6B63AF3D4339033D13138A3D469BD53C212F3CBDEE49EF3BF05535BD44B2903D957F643D6B4B3FBC4C6A603D9C56343D92C9A5BD233FAB3DAB390CBD79CEBABD7F6A133C3EC8A33D4970543CD16DB3BCBAFA9FBD05458B3C4CFE36BC91C3A23D5514CC3C9E6C97BDD39BB73D5DE9843DE71C3B3DF6D666BD64DD133D2BAFE9BC6172643D8F506FBDBC148DBDACF0BA3DD4F9CCBBC6BF983D3ADC9C3D230983BD98C117BC886623BD22A889BDC424263DFC78A13A530600BDCF56DDBBF5989BBDF893873CD00E263DB8395F3C693ED5BB30F6EFBC0E4BA0BD68D5533DD629B73DC645AF3D51D687BD1AC58A3BBB7E913C456EB03D0AE5DABC7A1B2DBDBCCA4FBD514FB23DF8A7AD3C209627BD3419283DE3C02C3DFE126D3CDE6F9A3C5498433D81CFAC3DD420B93D86909D3C7B4E1DBDC9D7073D55F98CBD200829BDF6ADA63B71A0F8BC7D436E3D0EE4B6BBBABCAA3DDB01D9BBE612B3BDD1AB19BD8A6C3BBD126682BD42833ABC4F1A2B3D3813153DD2F194BD7D57663D4F4AB4BD65E481BC1DD96F3DF9385E3D4E52A03D82824DBD244DAE3D92B616BDB18AD4BC04E34F3DBF3D983D2C8F10BD2042AC3D3E01C53CA080913D089DEE3B3B714DBD18B43D3CD85B91BD974E903D5397803D2E7E3ABD3618BE3CA09A3DBC9E28AD3DA41BA83D1DFF98BC1B1A873D10CD97BD1D0EDEBBC68ABC3C516C8B3D01E283BC9A9D64BD0D282CBD188DB73DCA34003DC74C5C3D26D539BDE6F476BD16BA41BD9DFFB83D6628AABC615447BD7D9780BD4F64E4BCCEB87FBC88B2013DAF951ABD4975B03DB1ECF53B9FC9773DE03696BD6951123D8096073CE324083D3668133DD5B3053D5298803D475C53BD8299133D146163BCB23208BD0E28913BF8F1313DEF0C973D652CA73DC06FD53CAD87963DCB2382BCE844F53C57709EBDCF34143D3852A9BDDFF4D2BCB312A33D155B423D75891FBD0D404D3DFF8C2ABDDA29A1BDCC5BB13DAC10E9BCCBD6903D71319A3D8852D93CBDA1C93B23EEA33AEE81083C13B593BC8AEEE73CF410363C7E7492BDF197793DA479063D257CAEBD42FD66BD9C0FBB3CEB8E09BDC396B2BDE8A7443D40C3B23D0378A13D3A13293AC202523C0D2833BC5D01A23D6778F9BCE3B0CF3A59CA0C3D12BF60BDF336723D7981D9BC99D3363DF2F8013D0A6C733DA03581BCCB27C73C0D615BBD7E1267BC43A8593D1670AF3D546679BC786421BD305DC03B133C8E3DABE3DDBC49776E3CFB3AA5BDED45493D87A6AC3DF996933D7A1F633DE1B8863D2A9037BDCD10B93D8071B8BD6977C8BA3BDBAB3DB85308BD5257A43C9E7A08BDBE4F903D3A970C3D6F3A0DBBF3338DBD3AFD01BD92B784BCD387B1386B860C398F3513BDF2AC8C3D540BE13C5D193E3D87D68EBD7FE763BC15B63A3D85504A3D2F1A75BD2BEB49BDC355973C22CC9BBD690298BCD9B38D3B5FCE1D3DFBFB3DBD33E2153D1921E7BBE44703BC66C3063C77DABC3B5750133D059EAA3C1A3FB0BDA7ACB53D7505AC3DB45C8C3D713BC23CCC5783BD6B8133BC668543BD39AEBBBA68710E3CE2B5513DBA231BBB59E981BB561081BC0769F03CCC08BABCD778A53DA480B6BC2427813D4111983DB94E3EBDB41B90BDA4175DBDCC34823DF965993D8C75BC3CDFB63BBDF71E4B3D47FE373D27DCAA3DE4F34BBD2948A53D8698AB3D16C8B63DB85F9C3CA589AABD81C684BDC44530BAD89DBDBC9610B23DEE942B3DC90A58BD1877ACBC64AC283CEF662CBD7A16BA3D21859EBD5BEDE4BC1968A4BDBCF7C3BB367616BD6F49953C4EAE6A3D6429903D12554ABC888D7B3D8E6B8D3DA1594B3DEBDCC6BCFC6D81BD66E0F4BB6A7600BD6004A33DBAA8DCBB9D72F03CD92635BD24B7B43DC8E28E3CCCB683BD77222EBDD3FE443D48AFAEBD96B9733CD237893CA7CB463DD28A943D6BFBF7BB21AA75BD6CA5943D2DDEA6BD372CD3BBE0FB3C3CEAE78F3D08BFA6BBF086D53CA3627BBDCA147ABD0D806B3C25FAEBB8CBED853D766C8A3BC050723DF1969E3DFC8100BDF05FA83B7ABD493D169444BD36A5473D365FA5BDDA73973D8EB4303DE348AB3DEA295B3C860242BC22861B3C7EA9393CB2FE893D9A498F3D65012ABD839DF93C1D6E0CBDFAFD583D4924B3BCDEC8A3BC963964BD08AB19BD2BA709BD56E226BDFF41E0BCAAA3103DEAFB7D3D6B7F23BD9C3D38BD11F3043D54FE8EBC89C89FBC72E86EBD48EF75BDD7A77D3C6AA925BDB72F753DC69FB33D80698A3D3366A0BD36548CBBEEB62ABDADB2873DD64583BD56648DBCBAB7993DE56EDF3CF37691BDAB1D82BD28DB253D09BE94BADD24DCBC0BFABD3C8CF491BDDDBB0FBC29982F3D29248BBDEC5D483D0AFFB93D8A6C533D1A9A25BD81A77BBD5FA0AF3D9E78DF3BBA78A2BD7D6A8DBDDF758CBC24022FBD2697E5BC877579BC09A2733DFA7A95BD86E3853DA59A193D449DA33DA0661D3C380DA6BD07B7B33D41450DBCD8A265BD763C723D3CE4B63D56FF88BDD883813D5EB098BD54F49EBD462AFDBBB9176CBBF9D3EA3CC4A0563D2579AABD1E07F63CEE3E493DB8B76ABD389D773D468C813D5D07A3BDC387B6BB012B7D3C93A8D83C827F8FBD74E8A6BDF399863D6691BB3C1DCFA43C803125BD048262BDBD55853D41238A3D9B8EC7BCC5D6ADBD55A1AEBDD975013D1C689ABC39F8F4BCE93B9F3C6854B2BD12CD9DBCDA7F6A3D0A4968BD9C7D9B3DD1632B3CBB33593DDA63AABDF9809F3D93CE1FBD053ECD3CBDC688BD8107EE3C839741BD83D520BD3BDCAD3C24F82D3DBB5A2EBC008680BD2191883C5E201ABD37566B3D3D4990BDD115253CF81B693C08388B3DAD59363D397D023D51C696BD6A7B80BDE05832BB6C92B3BCFCF74DBD724EB4BDCDF0A1BCFB7C10BD428B87BDBBE786BD9A5FC93C1F29A63D74C91DBD64476A3D9562473D408F33BCEEDF3B3CC4AC7C3D32FA18BD29F78B3D86A78FBD27A7F23C1BD54BBDD0F98F3D9E38813B8E35AABD5F3FB13D9522F23B59DB083C8F2666BD05C5BE3CDA04A63C1B2A77BD7127C3BC56196ABDFBAFD7BCADD1493D5181B5BDD8E6A13D4D1052BDFA2A8C3D0C3C27BC6AE697BDF4AC293CBA88A23C80F0403D27006EBD34AA0CBD37D9A33DACE1903BE2B8AA3DD4019FBB465364BD742F2BBD017494BD6031A7BD404632BB274A00BD49A988BD7F94083D89E516BD6219A43D217A1EBD9530753D93B4FD3B5B9F5B3D651DAFBDAB558FBD86A0863D8198333DBA4E123DD906703DB1E58ABD62EF943D1F05C53B85BD4B3C2085A9BDB322D33C34D5C63C9AE0953C1ACC323D4C3E00BD27FA983DAAF4633DF6D169BD44FE9EBB3ABE7C3D6CF970BDF0EA843D143D053D596AB5BDF5272B3D63B908BC79BE83BCEFC427BB62789E3D7D2C213D0073733DB1AE153DEE89B7BDC09F1ABD613089BD478A92BD0BF19F3D21B6963DF3B55B3DB88012BD6FCF1ABD1E5E1B3D94C9013AAA1173BD7D5FA33DB1F1A03D449B9BBCAFF765BD0A4D953CD40A9E3C7EB94CBD641032BBBEBACA3C8B666A3DD38F8CBDB459A33CABA98FBD8C5AB43DB2468D3DEB57A8BD1C378CBC465A69B90141CBBB24D991BDC95D84BDAB9880BD74F823BD6CC633BD87518EBDEA5F1DBC98102DBCCB20CFBCF4125BBC55C9DDBC7520753D3CCE043DAD0F1ABBAF3B00BDD3D6273C06EE23BD7063803C071A61BC80F1B9BD101A7EBD9B37703D58273B3C376DECBCEAD0A13DF9B8783C247A7A3D255CD03C21363A3D002CBEBCD572B2BDDD9391BC0D29083DC4A45CBD8F923DBD41005F3CB8BE453DEE5499BD66FA733DC3E5B83D6F97993DB6D5673C1CCBFC3CE56BE3BB53F96E3CE87A373D7295643C47B09FBD0B00F63C5C1C04BCD92B6EBD9A3D363D16456ABD6CD0463D1933BBBC36A5863DED2D6B3D765DAB3D904F353D3335C33BEC67313D1B85EC3CE5BF933B25BAB23DEC9A1E3D78B5CD3C151D96BCD916B8BC5563A7BDC477BA3DC21C98BD61105C3DF148AABCE6CF873CA65B91BDE26683BD68120A3D54C684BD8ED30F3BA5449A3DF5701BBCC69779BDCEC2483D5F483CBDBC5E15BDD4CDCC3C83557DBD5F4B6DBD1C71963B527DB9BDF3601FBC7E8EA43DC383C53C9AABB2BD2238E63BF051883CBAED3CBCACCC8BBD52F75E3DCE4A60BCD0889D3D51F1843DCCE1AC3DFBF040BCF252A03D82FA24BDE34B073DDBEB23BC32B7243CEFE08C3DB5CC863D3B1D6BBD6EECB6BDB45C1F3CD32DA73D45B4AB3D9F7695BD2A9C9A3B35AFAABCBD0C6D3DD436453C497DADBDE030773DFAF6D7BC2979F3BC38D6983DB944AABDB69685BD9B5D0A3D33C96ABD34527EBD72F71F3D587383BBA640043CC381CC3C072561BC8D33B63C78113EBDA1E09D3C8ED061BD3447C93CA227AFBD6E8B88BDB02FA63C69BE88BC826C74BDF5BA6DBC5CDD29BDD1D443BD1C5E2A3DB80A15BBFC26193D16701A3D185B6CBC29165B3DC4AA313D4B25AF3D5E644BBDDBE7373C99E6CEBCD79A9DBC7F8FCABCC7834E3C0E36DBBC14750EBD907EA5BD16126C3D14A3ABBDB2A8813D20D128BD28158FBD193DB5BCD114543CEF5ED5BC97E781BC8B616A3D184EA7BD1B10B33DDA928F3D33BDB2BCBFE545BD49D2193C515C973D81D75E3D53698EBDA1893C3C8C89CC3A52FE92BD0FE8603D665E933B2EA36ABD8F12393D33FB113CFE1AFCBCC6E66CBDECBC833D9A6FA13D1C73283D813277BD1193113DD2A06BBC2DDB8CBC88FD92BDCE89B43D80F0B23C77642E3D762F95BCA51072BCA5D395BDFA239A3D7AAD813DE9BB9CBDCEE9B2BD9FF3BEBCFBC905BD43E6853D16E97CBDE15FC33CAB5A33BCE6EC793D1FE685BD557797BD4A246DBCD5D574BD8A5E0ABCC7CB2A3CADD1AA3DC86103BD4F54B23D1606943DB6F082BB21F795BC9FA87FBD0C8EC33CD107B53D5C53893DEEF45DBDDD287E3D98899DBDE8AC93BC44938ABD3577AEBD09789A3D6D858D3C02AA72BD9F8AD7BC1D57A7BC33468F3DB01AC53C2882833DA7F277BB83CB3ABCDB93273D12C9B4BDE2900DBD83989D39C3D4593D08ECBABD3A5D9FBD9FED1FBD87A668BD8ADBE3BB2DAD38BCCE3577BD4F79823B5CEA34BD4F02313D8275B7BDC66082BC7C5F223DD20881BD3D2E913D17818EBDE9EE0A3A1F0426BD688B90BAD64B503DF0A582BDBFF3AC3C234F77BD7BE2CCBC6BB11FBD4245393D2611A13DA3D17CBBA305A6BD40C7633DBDFFF33B7AAD6F3D69A039BA740F8A3D41F5923D8CC7A93DD78E94BC3C8B4F3C54C2ABBDE5F75F3D86EB1C3D65D83A3D933226BD78CCB63DE9C6473CB3539FBDEC77813DDE51963C854E623D3205E6BC04CAC1BC6455873D0FB5E6BC8544443D29A2183CCF33ED3A4DAB84BDF4911EBC20E1A93D0EA1693DFF638E3DFCBB583D42427CBD434CA03CA2E656BDABFD743D973F4BBC2BBAACBCCC0C203C7FF11E3D062722BD5F10BA3C9E7CA9BD4C8AF9BCC44850BD3EC3ABBD8938283D5CEE0C3D1078B8BDE1D76F3D0E9381BD33AE3EBDEA4C1C3C164D67BD180C02BD627CF53CDEB3853DDACE2B3B08EF1DBD7797593D8101C1BCF50B68BD8D6BBF3B71E038BDB8B4E6BC7DAE4ABCD13913BD5367823BD6D2613CA067BCBB855184BDCFA20DBD68C8A03D69C2B73D1A2BA03CD6B30A3D1F844BBD4DF3EB3C4456E23C99A7A8BDAE26803D3029523CB9C634BBBFE28F3D55D45EBD33C76C3DD382C23C628700BC70BC4CBC22DA263DC2E2B8BCCB93E83C35128FBB2DCAA8BC0C5A12BC2D9227BB1132C73CB7D4A3BD1804053DCD1DFCBB1ABF03BD3D8161BDB07FF03CCEE4323D73429BBDE4C9AF3B2AEDB0BC7823A2BD7984A33DAAFB2F3D7DCFA03DA79F77BDF45E713C88DD89BC61BB5E3CEBDE793DF37A13BD56CFE53B102C0B3D732F5F3D8568AA3D7D30D53C240B0E3D86FE0BBDEA2977BC686F6DBDE29682BDD0CDB5BD3C76B83DA676B2BD56AA9FBD267318BD8DAC863DA7FBDD3C9BFA7E3C9CD7FA3C1C6107BD2AA247BAD18A0EBD5B9E5DBD24E8413C75E797BD2DEF6DBC95F1CDB6A5DA5BBDC51D7D3B97539BBD70909CBD15D44C3D8824FCBC2FA63A3DE2DA963D0328243C149366BD2A3794BDDDF3A8BD368EA03D5EAA2DBCE36381BCA5D19CBCE183BABD6EEA2ABDB84810BC3AD3883DC72489BDF8C720BD5FFBB7BD13D940BDF473B83D584A85BD3843833D3E5F47BD3F718E3D78C8263D8BD6F93CBB8F0DBDFB2C92BDE3919D3D5A9EA63D7E2AE5BCE80DA1BC0E0EA6BD35290E3D8B2E7A3DC96D29B82603A73DD65A8D3D8CDA44BD86C91ABD5EFA8ABC9B1BDBBC47E66B3DAF87ACBD0EBA773C9C5858BB0C5018BC175A31BD6E11823D910C6D3D58F0643DDC6C73BC4ED3173DD557F7BBFBD779BD471D64BDA30A66BD1206173D474B113DFAD8DEBC4054B7BDFD86B33CE16E813D2D85423DE10F8C3D885DB4BDD4E8B8BC4851C2BC9D84F6BC91C6C73C0DF88F3D3C9FA6BDD4ED9CBC8A2B7C3D9500D33C0B1FA43C0074933D2B6277BD877CB7BD73F2ADBD48FF2FBD375C0A3D4AD0983D090DB93DAB32933D21D282BCA7B865BDC961AE3D4204693D51C3D93CF7DBD3BC33C4463C88F20BBB02C4823DFEA4073DDAE48CBC03EE273C47F8A73D583EB7BD27FFC3BC3966A03D8ADCEC3B0E20E63C01A0A83D970AA23D67BBB13CF009093D195082BDBA11F1BA7E72B93B20D7133C73BB8A3D8A1F1F3D567C95BD53ED3FBD2760DF3BB33D833D66DC443D4D48A3BDFC1F1FBD8047103D0E51B03D8E405CBD2406A13DFE36633DC99CB43D93F738BC7ACEF23BFC95973D1F751B3D402D36BDDA7C753D7C2F4E3D8E3A16BD3C2608BDEE3790BDC30159BCACAE7FBDEA1FAFBC4E47A33D754A963D81364EBC5E5E303C47FE76BCE3DC9ABCB19F9A3D7278FFBC0745633DDE09953D3522AABDD7397ABD7A1CE0BC2DFD23BD10F8913D6C15E63C8F3499BD8DD1F0BC29E12D3D878A33BD7A463FBDF873AD3DCD6CEC3A675C61BDC354573DA32E49BD881F953CC3D3B7BD6F207BBCEA8EFB3C1EE44D3DF6C99B3C5BD5AD3D385EB43CD2633E3DCFAEB6BD643A26BB9D75B4BCB6F95DBC9A5D9BBC1D90C43CDD64703DB071303D50D4AD3DB08C1F3D9E438F3D0FF5F63BFE4292BD533144BDC1AC00BD47D6B5BC7C548DBDF877473D4DD4A93B6213BABC95CD043D478D023DF8EA7CBC6E9843BCC000B33DE543B7BD9BA4783D537297BD3DA5A13D72DE26BDE6B1FB3CFB7C25BDF98C63BD908487BD6E09DFBBAE379BBDDDCD823CAF59843D5DA319BDF73197BDB38041BDD48CB23D060EB73D4711E5BCCF42823918DC57BC2EBD9B3C1B775A3D4676B93D29F9CDBBDDF026BD6FEE993D9757E23CFCEFAA3D7DDB223D559ADB3BB790E23B8B421DBD18F94BBDFD6B9B3D87A6763D57BCBFBA1C735ABCB002883D6B117FBD20AEDDBCDE178F3D59D757BBCB59A6BD140D623D004E67BDAD2F9ABD899D9DBB0A94363D537A693D452F3DBB9957973D3CC2103DDAE23FBDA9418ABD5855183C02575EBCFC4293BD49D78ABDD485B43DD3F163BD2050CFBBCB352D3B3A572DBD355849BC86F040BD1BB8D1BCFA069C3DC05347BC104CB0BC10DA7A3D2D27743CE1B1B23DE2586DBDCA7C30BD686659BC9CC8E7BCC1F696BD6779B13D897D07BCB3E5A13D049E41BCBEE8B2BDA7B0063D9EA509BD17D1763CCF7BE53CD5B1D13C91EB063D3D99B9BDEF00E5BB3EA84D3D35DE4DBDB717A73CF07338BD6E70483C99911DBD92FDCFBAF1A599BD72FAF0BB8732883DCD1F45BDB9A2803BED6EA23D408E9CBD9F3A0B3DF902AF3C192ACABCD702803D01A9933DA05FD1BCBF52883DB5C3613D933C553D038847BDFB6FBC3C0FC741BD035C0FBCA677633D2594A33DE7B80D3DB62C1F3D68C4233D364AAE3B4712EBBA33F9ADBD617C83BDD8CEBA3D281C90BD254F61BD95000ABDA8DB363BA91472BDCAB862BC8E313A3D88AA0FBD5AE953BD5C591B3C17F0043D31A99ABDBC7790BC307FADBB2B44B3BDF7249E3D200C6B3DD12AA3BDABE865BD4B5A65BD23E201BD5882893DA17043BDBBD3963D7F4D6E3D282455BDFAFEB83D4A69993D8F5E893D6E0589BDB6D85D3DCEE81FBDA218083BA1FA423DA002FE3C6F297A3DB70296BD410725BC2D898FBD5F408ABB1F5A28BD8B61C63C7958D8BC0961B6BC14A4313DEB021EBD6C7C0CBC2BDA95BD23217A3D656E993D15CDAB3DD0D4D7BCE7AF85BDCEB7B3BD4BB9783B865CED3C08994CBD9B7DE03A00429B3D0351F93A2D26E03CFC0E813D3D271E3C2D9BADBD3D4FB83C9209BD3B9E9EAFBC00F39D3D70D268BD034B8FBD557736BDA54BD0BCA96F3C3DFFA6F2BC3131993D80D9B63DB30789BDA5A8583DBCC392BCCF7E733D791658BC4C39BFBCF171F43CEE2553BDCE1245BD2CB0093D692A483C75D7F6BCC54101BDEDEDE4BC74A252BD7B3C433D56E68ABD13ECCE3BD20F013DD54138BDF667EF3B285C433D62FA43BDBBEBAA3A46B1323D37C28F3D6AEC9ABD013C72BDD5B889BC416224BBCAD36DBD6D4B943D8636AFBDF8BEA1BD4EC40E3D9A92203D41EC153D7355B9BD552F1FBD377DD8BBA3A6B5BD9D7322BC90C2053C9DECC13CADCF89BD0DB0B0BD2558BDBC8F268F3DD888D93C4A929C3D66BE9D3D04ED73BD96F17C3C2EE0743DB5A01E3D0639BF3CB5F7343DAB4800BCBC7BFCBCB28204BCCC7B7ABCFC3EA6BDD02DB33D31771CBDAB289E3D00C895BD8C8D5CBD8E6A9D3D3691A43D200D8FBD092CCD3C3BDDA8BD09EC1B3D6873793DCA151D3D033F0D3D3BA34C3D4BD8143DBFDB123D61F88DBC6D1E9C3D9B1592BCEB94403DABFAB9BDDD94213D2FECE2BC9A5867BDBD2F81BC914B5FBC1C1CB93CEC907FBD8B8309BC6B5F4C3DD865A3BB7BB385BC00F392BC05034B3BD0A5A1BDE351233DB10AB4BD1E9435BAE2D684BC973E5F3DD7859CBDCB73A4BD99EF27BDBECF473D59079CBD2EE7013D88ECB9BDB1CA8B3D247C543DA352A63D9292EC3C6C5068BD5EA9933CFAA383BD69142B3D99B69F3D785565BC4351243D58CC7ABD5F20A73D4DD044BDD671BB3C49C0A43DDF11F03C152B1D3DA4004D3D65EC323D668AC03CFAB6AEBDA5013BBDB904D73CC248FE3CD230F83C8310533CEA7D8BBDAC254A3D890365BC7859E4BCF73AAE3B53BD2B3AF5164C3DDBE761BDD807B73D27F451BC50ABB1BC40B5173D88A292BD4411EC3CC2A6E83C1E278F3D57E9053D6AB8BC3C8BBBFF3B763F673D0123E0BCE5153DBDCB1184BCC7FB9D3D54F383BCBBC77CBDCEEB45BD00D8CABCD4634BBD02910C3C85E1A7BD1D06AC3DEDBE1E3D6FE6A5BDC83211BD48568ABDD726173DB84394BD78F2453C9014093DB288E0BCB2C7B23CCF0C633D749C1BBC5E1654BCE8169C3DE445FABC9079783D9D933BBC723C9FBDEDD994BD35EF8D3DF84875BCF76EA73D47A2663D6AC843BD638D40BC4B03563D41C4823B77CDCC39EF58933D5C09F03A8084013DE22BC1BC972B06BDEBFD55BD090E4CBCA0916CBDC3CB97BD3E188F3DF6DBAB3D977B823D8C13343D400305BDD0B5543D0525B8BC73A0A63C03D2EABAD6D3073DEDBB45BCA15DA33C78EF893D544007BC16162B3A0AB1ACBC079330BD2D449C3D2256B53CB5BC00BDA2FFADBD055D903DEA7C9EBD19C89ABDBCDDEB3C4C516ABD7CFA40BD5187013D9C3940BDFECE33BD700A09BD7D6A96BDBB40963D657E6FBDB3F04C3CB745A7BDAB2E283DF1354A3D444C673D1AAE32BDD30D81BD7256A4BD4EA39ABDD1EC993D98735F3B3CE3B1BD5B63933D216051BCF76C3C3C063F9CBDC7366E3D185E173DF9C631BD968FB13D05AB153C67726BBC8587F53C1168B03DF02CE5BB978CBA3D4945BABD634D653CDEAB6F3D05D9CBBC08D682BC75510B3C1355473D9BC284BD925C47BDC62E423D7FDA033BC635523D191FA03C28B0B9BDC558473B2C3CF7BB81D17E3DB4C1E33BD56E953D58DC7EBCA37D8E3D6F4AB83DEDB88A3D67BAAB3D5523ACBD26BA8CBD43EDAA3DD66B5CBC42E5A8BD292287BD4CF280BD64086ABD74F2A2BD3844003DEF3E623DF410EB3C46E05C3C15D10A3D090D89BD823F1ABDAF3E15BD0D4C6BBDE7B84DBDECC18B3C0A153E3CF911933D53B46FBC13E9283D2EDA993BC4AAB4BD1927A73BE8C08F3C5C808D3B7E5B18BD23573FBD2EABB9BC64C81C3DD6FAAB3D5F897CBD0727B4BD444AA33DE73EAEBD07CA28BDBFF7AB3AD4DFE63B28FC56BDB77AA6BDCF6FC3BCA94367BD3B8F0D3DA7DD24BDD4BC94BC011CDF3C36EF63BD5967D0BCCAE3B5BC56DD82BD0CCBE2BB27308BBD7FB43BBD6FBC1D3C008FC13C7583AA3D21941D3BA30497BDF3200B3DA1BA003DC3289E3D096BA6BDC44076BCE968DA3C128FF0BCB29E75BD75C16B3DD7B911BD6F3A48BDB3F6943D0B0D3BBDAE38B6BD2D41813C106DDABC5455EB3C7E884BBD58D694BCA1EB47BD884D723DE5EEA1BD8B3B4D3D3ACBBA3D66AC51BDCCAEA7BDA513CFBCE328863D55373F3C81A53E3CC96E903C929B4E3DD2C3903DB52C97BB4BDB333C2BD3B33B80B1B9BCB3BCFA3C3680AB3D5DD4E43C406DC3BC36A2083DA7A420BDC82F85BD2F8193BD53B78FBC8250123CB46C4E3DA3A3663D8BDD9DBDEBE99BBDB1032FBD614A813DEBE656BD5399E13B541BFD3C8C688FBD1D1D853D10E8AE3D9E5F00BDD1543B3DAB949A3DF804B73DD97BC7BCC97B62BD41E1383B9132393D400B903DF03DF6BC17BE8E3DE9A0CABCF15241BD5E84B93DDA33843D6D097A3D43C995BD20E2FDBBDB20E3BB6F604C3D3805B93BEE7BBD3C92F437BDD96AC4BCAABA193DB5939BBD924C4EBDE1472A3DF67465BC311888BD2AD8253B30AF56BDC342A73D9AB3713D5337313D1A14363B9CD1263D76C52B3D161FA7BCBE0E613D7718B0BDDB75ED3C4364913DB9F19FBDA6A7C9BC9B90D9BCB6D6193B6DF17F3D703C913DCECF42BDA0C7AABCB591743C09A5B73C0ACE51BB55F25EBDB65574BD7B7EB5BB1FAE873C394DA7BDE00CB1BDAB0918BDE3A5DD3CE1E4093D317C7CBC344378BD2DF94FBD23A6923CA931A7BD08FB4A3D7EF78EBD59B3CABCBDD0303DD48834BDF79BAABC68BA4C3D7C242E3D20EBA2BDF6DFA4BD9990453DF38241BAC359353D6848633D4314953DCD4A983DF5D614BC8AB2C33CFB69053DBC04893D347905BD7E4B283D67F0A2BDDB50023DC5BD753D23D9DEBB66611A3D712806BCF968A3BCE5C4183C4F6B1BBDDE51EABCBDF1B73D7DA53ABBF096FC3BA9BE3D3D4624B13DF0A9C0BC9671ED3CBAAEB3BD0F8D25BD64F9203D49D7953D6E1FB1BDDB5C3D3D2475523C9C4413BD014FEB3C12C79D3D30E3173DF01CA63DB27F72BD1D7BDEBC20E391BCF0878D3BF33ABE3C0B8C7A3C1AB893BD31C6AB3D6C208C3D978A8DBD5244C7BC323CAABD6D4F08BD869B633D69836D3B2F8E2E3D5D11AB3C4DE5963D6D8FA33C7A584F3D800A3B3DAC5679BC154424BDDDFEB13B96A7B5BC5D2563BD7157E1BC91AC923D555720BCCD54B0BD422503BDEA7EDF3B676DB93CBBB1B2BDB3B786BD7657933A153491BD87C8393D1AEBB03D61089EBD8EF4A8BA6C925A3C77A02E3D007EAFBDFF9BA53DCBD34B3C34603A3C905880BD7AD58DBD20427ABDCF52DE3CA2BD673DF60168BD5BC2BDBC1DE839BD81482DBC930FACBB4F9E78BDF11C4DBD9D3B1F3DB1D38FBC771C88BD1918CC3C1D9E323D348CF23B98CDA53DBA3E7A3C786C9C3D2187C63C70A2A23DE07818BDB21E2DBDD47C2B3C0431A1BD684296BD89AA98BCCD4644BD1FA98A3D988058BC7552663DEFABFC3BE01876BCC7AFA7BDD08D8C3C0DC24F3BD6CE663D6D1E003D8B9DAEBDEF32053DBB9217BDB29BC3BC976A263AA529A0BD1CD0A2BC84659BBD5B65553D729F983D48D12B3DCC111ABDF1C6B9BDEE4F2CBBC0E3CD3C135E4A3D64207C3D2F905DBC670247BD4988AEBD63C061BD82D4A6BC5B9F463D2CE872BDD0D0ABBC3CA430BD86F297BA364CEF3AE95D84BDD5ADF33CF2C68C3DC7D3BABD8A02BD3C68DDC2BC5D50AC3C5282A83DC8AF16BCD87B8A3DB9C182BD928D053B4138373DD1BD5D3D073697BDEF72B6BD96949D3C7AA536BDF163AE3DC1A4FBBCB979F13CE55CAC3D12906B3BBBA4803ADFE0EFBCCB34963C93D008BDBF11B8BD82457BBD02A1143CC2A704BCA7E1AABD949ACE3C87AB773D23707F3C609312BC0300D03C819632BD3BB0033D000ACE3C5805783DA8E98DBD9385063D4AEA863AA97FFCBC13902DBC16EEC5BBDD0EF53B7F6B6A3C655052BDB7098B3D62AE54BD4C7D353CEDB4123D45141CBCCBF9B7BD5696A93C801D3C3C150B74BD363F2B3CBC59953D32809FBD7BB86DBDB9FF8B3D68D3593DA09E783D6651B3BD398EDA3AD11E16BD46CD3CBD7530A9BDBFB062BD8BFBF03C6783B6BD34D81B3D77DC8CBD38EF703B486B833D3F2B943AEC628F3D6BD0B5BDF548F63C62BBE0BC1E39393D4DBB263D3037473DDA48513DAD42AB3D0C38DA3B41CF843DD30A4B3D7E31873D4FCAFC3CB8BC8ABD2CB1AD3D9D75A2BD9B05A33D9FB1B03D4A3274BD8D82E1BC7E8BC0BC80B7423BE7832EBAFF196D3D17DB4D3D75D27C3D96DEA0BDC871953B1BD3B5BDC2F69E3CDE073C3D992B4CBDC982A5BDF6EE8F3D1E99603DA40B2ABD1F8C0F3DAD6B353DAD869DBD4AD123BACDCAE73C5C8381BD842C8ABC0ECCA4BC2F15943DF29F8BBDDD7861BDB0CC333DEDCF97BBF96BB53D9C3C473CF3AD80BDC4C27CBD9A4C49BD62BFDABC600D063A8CA3A73DD8924BBC8984A13C8592273D086E083DACE98D3D8735EC3CA539DABCFCB20EBD51174A3BDC07103C3AF5C03C343D1ABD6462B6BDB9D1FF3AC6275CBD91C8C5BAC258003DA02D0B3C686F8F3D0B51F8BC883E8DBD4A84713D85EA973D2006FA3CD2AEF2BC2696553D8EEFA23DF12A98BD023FF93C8111973C72E52B3C3CB6783D6BCBAB3DB478E8BCE59C8FBDF714ACBDF71F71BC0B6E813C2B14823D976783BD22A2523D41DFA9BC7FA9533D624EA4BD1B975F3D12B7793DC2DEAFBDFC28283DF6148DBD8EDD42BDC423B23D5AD9873DB6A7273D500C0DBD95877D3DDA4AA53A01B331BDB3CEB53DA6217D3D4C70983CDCD3B73D5E3510BDF8A0483D4DB4FA3CBC17903DDE38B03D7F02BABD212C8A3D730C98BB59B0DC3C6DA707BD17C3B7BC68E19DBC2C760A3DE34CC93C8291E0BC4F487ABD1CAB183C3B90A63D4F704ABDC89EA53D6A73A43CD870F4BBDA03AD3D249D3FBDCEFD5CBCE763CD3AC5A18ABD04051ABDBD896FBD39972E3DAA7019BDDEC6303D80555EBC861AC0BC9197AF3CCF8798BD91B279BD24423C3D14A96ABDAAA5573DB578AA3C0080043CCD63623D4F47463DFB4DA7BD9DD5653D33F44E3D9C4AB2BDBE0A403DA1EB88BDE2B74F3DDEA115BDA2F3F7BC563D98BDD743FFBC2039B83D2A4BCD3BEBF24E3DB3BAA1BD0C300FBD8F651C3CDC85B8BD3D57583D8DAE373DD7B191BD3F039FBD9DB1B5BDBF67CFBC9DA3AC3D2E8D273D515F15BDF517443DDD590ABD18909A3CCC44DB3AEF19C83A85EEA13DBDFC6CBDBB05B13D63190CBD7945A03DD866A93C10E774BC1CE8A9BA048B88BB83D75C3D385ED0BC6F7377BD49D113BD598921BDEB6EB3BD82BC81BD597F263D5EB2AC3D68227EBDFE34103D7EAD033C9B96B23C2C462BBDDC76203D398E29BD0E6795BC519A9FBDDFB3B4BCEDE6713D922A2BBDD35B73BD4306D6BC22F531BD708EC8BCFE90AF3D09067EBD1C4B9FBDB8BC9EBDF73A71BD0B38A03C6CED21BD4E988A3DE348B63D01A108BDCEF834BDD896433D074B70BD6ED6813D11C49CBC5C0742BC8C378CB32F576D3D56BA3A3D0B8E0A3D2563833DCD469C3D7424563D2AF66BBDFFD4943C4782773C8BDC8FBD17486F3D35DE70BDFBC64CBC28482EBC3C60C4BC086147BDAB4CA33D6A55203C0B30123D3CC38ABD2A7E903DC535D73BD2C25BBDD96DA13DEB1B08BAF3E9033D413352BDC39CE53BB97A9BBC342609BCB025253DC781D8BB8E139A3D0BCBE53B5F21A43CA99F6F3D9CCCB1BD606B903D10762EBD6ED4A43C9DFF223D6868483DB431283DB50156BD20329CBDE8A653BD88D85D3D77F1613D3EDF73BC8B6D87BDEB72B23DA060C1BA7310E33CC25342BD0FBB8ABC80C49E3D17F99ABD0903B43DA035003D88A097BDD76088BBCEF838BCF1E440BD8F16453D665030BDD1961B3D711495BCEA4C8EBD7413E13C96A81BBDCF2BB4BDA49A343DA06C04BDA9B0333BA370B4BCFBB5983D20198DBD38F40EBD921C3DBD5C878E3C410E433D55F528BC3D83813D2087173CFD4C533C972F60BD5973B73DA5F9643D68FACB3BA2AA3D3D8ADF773DA0E22B3D4F0818BDEAA08A3DA4BCFC3B0C13A8BD077C51BDACB577BCD6B99EBDA3339ABD262205BD426639BD6D6E853DDAE0103BE364AF3D1B962FBD60F8D93CE4ADCDBCE542B33DBF59103C28CD183DA5DF463DA8BB943D4CFE923C91DDF43B5D4646BD05D56D3CE0C3443D3F0D9EBD2AE904BCD1CB52BCF13F123DC6BB803D543DA63DB9122F3D7857993DFA9AA03D0F30253DB1F1A73DA977AD3D92DC103D6338943D8249303CF5CB30BD2F0E4D3CDD3E933D481C3D3C710C2E3D802D153D84DA68BD7E0F8ABD6CE279BDDA8086BBE4012CBD8852973D43398FBDFCDB82BDC76240BD5635A3BDEEA6613D9E94513D0FF7B1BD922824BDE2CA3E3CF5D2873D95C36CBDC48A763DE93F2C3C71312C3B988B99BDDF05723D5732EE3CD7158F3D4F23973DA1E9F03C9CF3A5BD41E3B63D5702933D7F0FB7BD63B99B3D6148A7BD2E12BF3C215A63BD94E6B5BD9AE4813C81399C3DDB066C3D3DB9B9BC84972D3DD5189FBCA7948ABC96D581BC5B1991BBB9D3C33CA203193D3906B5BD759BA9BDD8A10ABDCFFCB43D232918BD35221A3DDEBB29BDD24CE23CD3689ABD9922BB3CC5B1453D2933CABCCAE7183D3A361CBC2FBC84BDF0A69EBD6B148EBD1403613DCED1ABBDC3BC81BDB5AD703D35F79C3D1D1243BDCA85523D3679713D7AACA6BC7A68A53D225E353D6CAD06BD169E963D9E48B1BDA61884BD2DA3093B7103643D6ACB71BD44892EBDFCED9BBD3A61323CCCCF073D87B786BD18FBFA3C5F3D9C3D052361B981C95EBD2F5D433D6E45B93DD6EEA7BBF50C20BD528F3B3C41342ABD3879663D52A9C0399C2B9C3D707821BB9D23973D111194BD179D9A3D179E99BCD3E746BD5F72103DA072833D805364BDD5DF163D4BC6363DEA1D32BD55540F3DABFE923D2D37633D8738A9BD196951BD9B3DA13C6C056DBD8BB173BD97E8A63D840C993DC779BB3C6728533D7A084FBDEB6A93BDEF2FA6BD4A5C9BBD250F7BBDBD8C97BC9B5AB53BCEF0963DB854153D0FDE62BD7AE0B83CAE0BD53C6EE58ABD1B50E5BC5A9C113D7E5953BBB5FE3CBC9AF3863B1CD5F33C31E7B63D784C953C03527B3D17F68F3D0B0115BB01EA85BDC078A43D940F0E3D17A2DEBBBB6002BD6DC860BD98C5B5BD56DD84BD81D6863DDD31A83C1EA14FBDD1824D3DEB02A5BC1FB768BD6BE0023DC40A7C3CE1C89FBD24658ABD589D96BDA1C94C3B23615D3D93F86C3D8D891CBDDC75933BB650493DB144EBBCE017AEBD2BA5C83C06D1C9BBDB4DA7BDA02E3E3D9085643D96420E3DC5DD50BDFF2FC6BBE8517DBD8447F4BCCB93DA3C967DAE3DFB2982BBB83F7EBDED74A23D8D730B3D97DE56BC4D446BBC12B5833D0170A73DC89AB23BB015963D7B4A313A1BFC553B8A5DA03B6D6E743D8A14183D442CCABCED26CD3C247AA2BD104A27BA47AFBDBC96CD593D04BE583DADB5873CFA978BBA08C6A8BDE2B0773D04CCA13D15A2AA3CCCDF4F3D2AC0153DF8B93C3D290622BCA3479EBDC0E8353D534803BD343E273D704AA03C4B0EA83D9C612A3CC97A43BD46C088BD663AA23DFD6A5ABC922027BD1571893DDF91553D19C6A73D6834B83D4C9C51BD8A8E94BD2A7422BCFF23913DCAEBABBC8071EFBC8405C73BD5D4A8BCAC5612BCF4E29EBDA9BF83BD8CEA483D1083093DB29DB1BD6E9C99BD2307FCBC942121BD3BCAA3BDDF94083D14819A3D76E1963CB50AB53DB3AB7ABD2F7B38BD6BB1863BBBC656BDD7E6A2BDEF6BA93D89BF74BD3E2C85BD68518DBD3057083D8AB49F3D2F75AE3D39E5E53C312F253CA2F67ABD18CC453D3BC9ACBCEDED1EBDD1C639BD4E46003DB39DBEBB890D063D22973DBD465F073C8A778939060A5C3CD213453C36035FBDA7E4A4BD6A4673BD309A853D22799D3CB765AABD31C23FBDE34B5CBC2F230B3DA51AAB3D4CAB76BB7D80BA3D74B77A3D2D51C93C97E59ABD91869BBDE7B7903DE1BA95BDDCB2123DE3EB653D385A15BDA4810D3B09778C3DBBB200BD5425F13C6D09A8BD914C143C311A43BDDFF2DFBC3673F2BCB006B83DE91A27BDB2E1D0BC1A29E23CB6870A3D26DBAF3DA600A73D207F2F3CF7C093BDE32B223D03E93BBBEB2BA73D02E0503D6C9B323DBDDFB4BD576E91BD70F740BDBA4C943C30CCB1BDAA777D3D1549D63CFBFA57BDC46EA63C222AC0BCE98937BDDC10913DBCFF0EBD7B8FB0BC056822BDBC1474BBB1BD3A3D9B298EB9222B973DC1625CBC9EFDA23DC1E615BDE601AA3D5A3527BDFC3A4A3D7D1B063DC18695BD7A199EBCB7E1D63CD6C0843DA387B23CDE90633C13101A3D0ED7163D68C6EEBC38E73EBD66657B3D45B58D3D6FD524BD13B6883D470D0BBD1DC715BD0DAC133D9F65393D42348FBD10A4973C8E07D7BCC48E873DA027853C331480BDD40DB93D0B4A85BCE8B2013D2FB5833C25609ABDD4EFA6BD37C2B83BBF49BA3CA196163C3407AF3DB92E88BDADDABEBB2FBC0CBDC2EC16BDB0D3FFBC0994F7BCB65BE63C77F1883D29063E3D7048AD3C188C8A3CB6F9393D69E930BD78FA173CE3DA8A3D19CC0E3D4D6C98BC386804BDEBDD8B3DDD57F3BCD66C65BB261A983D8B40B83CE4749C3D50E85EBD6E43953DC2F0B43DA86307BD875B5E3B2B1FAD3D7462A2BD79357B3C9832B13D5C5B99BD9AD7ED3C318843BDC68E693D05657E3D9006143DD216573CF36AB4BDEA1F2C3AC1FF58BCDB868D3D9617823DC80C063CD1D08CBC9256873D0197A33DD01680BD3CEAA0BCEBA8703DB67397BDF7AB83BCCAA7803DA65580BD3FD971BD1DB6A4BDF254B8BB7E58A4BD7A8C95BD25E894BC5CA5513DFB5092BDE605093DEFE5403A4AD6AE3D9975AE3DF447013D1B899E3DF2C7A53D728075BD97965BBA1B69AEBDDF54A8BCE17D0F3C91BD90BD18752FBDB1738C3DB32C803D76531F3DBA2243BDB04C28BDF26ED6382430213B35264D3D38C07B3DED2FD43B4D97FC3CEDB07E3DA821BC3C9D55EFBBA443823D03BE563DC642A0BD8AAAF1BB4D5E9F3B9867883B7F46E2BC3361853D7716B5BDFA720ABDE4BE99BD7D4E9D3D487D0DBDDF44A9BD1801093D58E80BBD1344A1BDDE5545BD1A981A3DE750493C2F9E98BD8EF91E3DFBB065BCD5044EBD6064203D05E2313BCAB3FEBC12043A3D119A72BD86BE05BD62D112BD10DF96BD1915FABB96EE98BDBD872B3CE9D10FBD1335263D17D76B3ACBC3D13CB421B93C5062213D146697BC8A5910BDFFEAB03D6857D7BC8ED537BDDF91FCBCB3939ABC60F5C73C73FE21BBF107573DF8FDB53DD7EA93BD88F1B1BD8FBCAEBDC92C103C6E36263DF99379BCF0DE3CBBB9325EBDCB1F5BBD3945943DBE6D7FBDBB26E23C958074BD75E44C3D264D5EBC7D40903D3CE613BB8A0BA7BD407D90BD8CA5F63CFA88033C996B2EBD47645ABCC1DB8B3C8AF0223D939D42BB4957BCBC4684B03C1A6E093DBE838ABD8792A6BC87E7B83CA05A62BCFE7689BB38A7123D1DC3EF3C42FA8DBDA5094A3D1142B03D9BCF8F3D496AAA3D1073723D54F1843DBACE6EBD66F7573D6A66E6BA392A26BD212F9A3D0EBF0EBD67DC98BDC6DA193C21D8643D73ADA73DC1F9853D8E396CBD096DAEBD24A9883D20586F3D4D05D6BC8C8C423D77D1963D448E923D5E898EBC79D33DBDC0337EBD56AEE23C4083B1BD7D1E0CBD3FEB813DF160A03C07DB483DFE8A643B359B483DA8BEB83BD18693BD83B70EBC861373BDA67D91BDB2F4503D295D81BD37A37C3C8FA2A5BCA0F1823B3037783D4EC718BD864859BD373AAF3D2EFB23BD83551E3DCF3F2DBD448C913C4A7EFF3C5327FE3CFF77973DD5D9923DCDC41EBD207DD8BCEBA4A63DF282EE3CDE614BBCDCDF34BDB3E794BDE4B8C2BC3B3C94BD0EC3B6BC1164673DB7C3A13D0241D33C7FE1FCBC666DB5BD1461633D258330BD51F0EA3BB4DD23BCCC4B593B54445A3CB86176BB6CC34CBCDC55B0BD916927BD95F0EE3C4F6C28BDFF572FBD8E28303DA11E03BCB2F1623DBE14173C89EF90BDD87ECCBCAFD227BD54FDE4BCA6D566BC28E56ABDBB1413BD03F9953D0C14B33D6055963D2EE08EBA4FCC7D3DACA58ABD9BF639BD251ACABC78FA69BD1CE1C1BC9402B43DED068DBD2690603DEE7D81BD61DBD83C18289CBD90FB483DE0C6913D578F01BC2C15B7BD5B8F8CBD5BA0AB3D058DD13CF83C86BDFEA2A0BDC18D083D4699BA3D1187FD3C61A467BDA3C393BDBF39AFBB0EAB903D1FE4B6BC5EB8CD3C14CD063C38C5EE3CB43F083AE352A23C98FC1CBC59A14C3DB10E043D424DABBD74EC33BC92715DBDA45AA9BDEA2B4ABD62A7B1BD29C75CBDD006AFBDB0B6653DFE2236BDF37599BDA862653D79CD6FBD2A3FD53C68C1AA3D8B036EBD500FA7BDC30A7EBDD48E453D4EAF34BDE635323DB9FD8ABD9DFB433D8957813DC340973D8D5C64BD706129BD229800BBFE49AEBD90C0AABD78B6B53DB606DF3C39A8A53D940B6E3D3BE301BDFA224DBDFAA7A03D9E25BABD70379CBDC0E982BC06F3283D9AD4823D5FB0163DEEBA91BD5352793DC5263D3DA0C608BBF18CE33CA9BEBDBCC2A1103D0CF3633C6BD44ABDC79BE8BCCE7E2F3CC77EEABC3E6F7A3D53E935BD31B19A3D3B28EBBC5033483DF1F8ED3C7B1C5A3B298A7D3D96C696BDA2FF72BCDC74ECBCF0D4A43D81D46F3D8C98243DA55D8D3D4B07C23CB102DA3CC96E72BD4618A33D50D1CDBCBCDAA63D2F127CBD1CE63EBDDAEE953D4974F23A9DCED63CC91DA73D23D3773DB60E8A3BD80A9A3D0A0264BD9AF0713C1B12AD3D7D8E84BDF967093D07BB46BBBDC3C43CB389323D481CAE3D20567C3DB86D073D6EDC75BD7B3399BD30DF263DB5CB823D6F7C6FBDAAA5933D5BF40EBDDCAF64BD67AC643D3C8443BDDD41263D595E89BD6B34363CE39BFFBCAC4A5ABBC7489BBD8E04ACBDA82ECB3BEFA98F3DD60991BDD26121BDB38C993DDE81303DF8E63BBD1DF233BD5C4CF93B2D23BA3D714702BD7872ABBDC99C1BBD1626AC3DC61E953D3F02BA3DDC9487BD8A9636BD21094DBD110C39BC61E88CBD6AC3BCBC76F751BD72BD573DC4D19F3D5928923DA810B5BDD8AC87BD6DCD7DBD2DFB2D3D8AB5A03BA761A83C945CF73C6B4A17BC1F1809BDDACD9DBDA76BAD3BA0586F3B0B15503D2508F93C2045BABD3C7C90BD3824943CF00E7EBDC284633D192D1F3C8BB7A43D8922243CC737ADBDD4EC5C3DD60D98BD2705C4BB7D4A99BD452C81BDB93BA93D15838FBD076903BCA1E055BDB5FC5F3C83C2493C78C7A43DE5A0B8BC630BA2BC936BFC396642A33D5F5F843DAF751FBD7C52CE3CF93802BD075EAFBD0584B9BDA3347DBCA2500BBCF6AAACBD3BF6B73DDBDB4D3BDDE57F3DDC032E3D523AB4BC9D62AD3D60B4893D8DC9833DD668513DA95F0A3DBDF1B7BD8564743B3DE918BDC4F6363CF024453D20E5363D1FFE263D33AA04BDD681813DE19C90BD3CAF64BDDD5390BDE1B9A83CE9DF6E3D862EA6BC27285ABD7F6D56BDD6C031BDAD8BB8BDFE4BC4BBC10D7BBDD6786E3DAB239ABB2558863D4F355ABCA1D0783D778C9A3C838DB63B4B15653DE1B6963D513F97BD14D1BABC3AB9673D1F32323CDABC8ABD78E7A93D05C810B80A0E433A41F4AEBC0EEEB6BDFE03303C95B8A53C58E380BD6EFA9BBD6F998E3CDF08BCBCFC1B95BD2D82FEBC9FDCE23C78C30ABDFB101CBC9778943DFD7DDEBC8EAD40BDB02202BD37DA92BAEE2E4CBD2ACF623D632552BDD886743A63E2ADBDD009B33D7A7C013DBADE803D39F3EFBCAA785C3D7FA8AE3D6B3E7BBD5D7595BC44688EBDE374D2BCC4CE623D2F66B2BD687D733D15FC15B812BBA8BDD482AEBC35B16BBD7C5B8EBD405199BD8404ADBDF88A32BDF05C163C1A6E933D179FA7BD7C069EBDE18F8FBD9443AEBD03EFE8BC39A0FF3C4B4BF53C73F88A3D70A5783CF1F6503D7B3332BD9FCF99BD4C14823C2274933DC9360D3C3842833DC27434BDDFB50E3D0E4299BD2587FFBB482F723DAFAEAFBDD5985C3D8FEF97BDF9FCF1BC3BEB2BBD3CA8B13D2AB49CBD55FE99BD4DDD45BDD33ADBBCCE9B30BC0C976DBDD91118BD5B667EBCC171993D064C47BDD49CB3BCD89A4CBC1B3E863D796D483D9403B93D21DDE43CD936403C9AD6FD3C2F6B9ABD83DF593D8C6DF83C7BE7FE3BE9BDD33BC681823D05EC283CAD9B053C7A12383DC4EB843CCCF27C3DAC5CFCBC256C97BD504D153DBCF960BDAE0FC9BAA6CFA23DC0DC39BD8AAAAC3D294005BD0696A2BDEF4040BCA52545BDF997B6BD38D98F3D2D16B23D7BA1813C5B0A28BCE880133B1E20A63D5991EB3C27F65DBC4E0F033DD0CF413CC4A43CBDD962AB3DC21C073D06C15DBC7F3EB0BD8712333DD12FC33B74BDA73D444F98BD43699E3CE4B53B3D3566843D2408B5BDE583793D3FB7AEBD1ED9CA3C02ABC3BC54854A3D8750B23DD176A63D070F1BBDBC63AC3DE56F063D8803523CDE8338BC98A8533CA5AFC83B37DE923D156DB9BC915D083DC8CE55BD3EEE973DD914983CF2A1AABD0E0B923D09275EBD0C7E5F3C993053BD3CC5B83D0E52943D3FDFA53DD216DA3A21B093BD07629F3D9A84B6BD561B0FBBE65C233CBED6733D9387623D318AA43C0CFA033DC28DE9BA8A00003D695FC7BCADC182BDCF7CB6BC485E5C3D976994BD12B2463DFC03C23C89CD983D62ECC7BBBDC5A23DA75310BDFD5706BDD607873D7483E8BCADAEB3BC29BE2FBD49D3863C219317BDCFCE56BDD3B97DBD6A3B533D8D1A73BD778E8A3CD0F731BD01194A3C5664B63DE368A5BD4A68203D560300BB4805B03D854EB2BD0A58353D516EA1BD04114DBCA17102BDCC330E3DA3C89D3DA7C24EBDCA83873D35AABBBC968B6BBD76B19BBDA72ACCBCC41F0C3C1562B53D6CFD133C9B70233D5BC4B6BD22C044BD1F683D3DD97F26BDEF3019BC41D245BDE1239E3D4A71D43BBB9AE8BCB8C5AFBD122F8A3C78AA1BBB7411EBBB94195DBDAF84A23C8E78293D4C848D3D5E2E82BDDB12C33CD2AD82BDFFF3A73D1BC8903D8FAC80BDBB3B6E3D712B77BDAACAA63D0DB36DBD2AFF1D3DB90787BD3920063DD82E183DF2F6FFBCC9EFAD3D9F6191BD2F47833DF93A0ABDDDC044BDD520B53D3F2731BDC9CE093D006E253D2811E03C124691BD62A394BC0D8E8EBD8ACA393DF481B2BC0455B3BD22F1483D195957BC7D794FBD4E0681BD8B25493D8F9EA4BDB338B7BCBD9A673D799C133AF1F413BD083CA23DA6AE823D50B08C3DA5E8A2BC870F993D77A090BD3371193D62E7B0BDC5C8B03DF610BABDDB4D9EBCF8D6343C108C27BD9AA4B4BD6E3DB0BDE3D96EBDF12416BDD1A0153D9CF7C73B06AD863D36878CBD8859C9BB3A1C8FBDB881D43B154F82BD92849CBDF4E6A33D530F17BD0301913D0A563B3DBC4310BDA5086E3D1F04B4BDB16687BDF3B928BB1EB29BBD432176BD6903293D7BEF4DBDE70B8B3D473F04BBC74B73BD19F39DBDD22C253D1375E83C65EF8F3B4E07963D78E84EBC542DB13DC8EA963DFB2A05BD3F6D3E3DE359823DBDEB6D3D9EA565BB373B0BBDD5D9B93D680A9BBDE3089EBBF87DFC3C7813AD3D1A539E3A59B7BEBB8C2EF7BCBB79E8BC1099CCBC28458BBC48148D3D836AF0BC2E30B1BD99CF9DBD4379A73DB3DB98BD316D423CFC98A43D712C13BD5D19B43D21FF753D7A1A8B3CE5ED993D2C2564BD31B4CDBCB4FEB7BCF6286BBC44F2B43D12962EBC34ED12B908E26ABDDFE786BD6F22B83D39DAFB3C60EE4A3D8FB5573DD1AEBABDD06820BDA1D5043DE3D88B3DD26BE13C8FD88ABDC174173D9CD085BD56B5AEBD5CB4493C89B9A63D9ABCDFBCAA2F81BDA71E5B3D19B572BD6E09F8BCF3FCA0BCDDEB7ABDE3AE6DBD58B16BBC52FADE3C753872BD272DACBDADEB13BDD55485BDDFA1CFBC47C2A83CE3519CBC10A137BD2490923DD4BA2CBCF1C65CBC772FA1BDDB07CB3C626AA93CB280A03D2D698D3DE2EE053D2D10E03C7AD6A7BDBC429C3D4F172CBD188F1CBDAF82ADBDE7516E3B6E22633DEC3C10BD029851BDDE83B5BC85DEB2BC6D0D84BD7CFC24BC7783423C2EDD1F3DA95BE73CA99F8F3DB0E4583C697FAF3DF38096BDF28A0CBD504CBA3D1651E23BDEB85E3D9BB2073D775E8B3BA4E88CBAA490A53D7F8992BD7CCAA93D3D396CBD3A67C0BCE3EC5D3C40D807BD414784BDAF8DADBD9D682C3D66C8623BB1E30DBDB26D82BDFDF77DBD1FB281BD3F7CB5BDA9D4B23D679E9CBD0A8FFCBC80802D3D61B14BBD6DAEFE3BBFBE4A3DDD5B81BDBD331CBD91FA6E3DD18C96BD2D019D3DB587093DADB2943D93C1B53D44F04FBDD9AF363D43F2AF3CCCF371BD63E8D8BB2D8E8C3B8F39703AE58BF6BBE83CEE3B673D703DE0EE1E3D1F4378BD459E6C3DAE0B123C9ED2043DAF5B93BD7D41A23D471EF13CEB1F3FBDC31E8C3CEEDC353DE8A42BBDF999363DCD8A973C131B643DE5B4653D23414E3DC17BAF3DE061953D2C888F3D494B7D3D9B6898BC392372BD62DEB4BD400D693D5E105FBD33A13E3D64803ABD8BCFBABD38933DBDC64801BDC631B43D6ADC51BDD6C1B43C727AA13B47098DBC70815FBD2419ACBD59C9773C83C1783DA67B143DC431893D0724473D38049FBD4422103D1E3597BD6B2FAF3DE3EE543D0CDEF7BCE40CEEBCA7A98FBD8F90BDBCC9F4773D5C7766BDCAD2763D1EAACE3C6F23F43B71ADA4BD14D0183C10444FBD49E291BD039DA1BD52AF953DFC208DBD272856BC171F243D6FCD873C162FB93DB5D80E3D6B8B893C6B34E83C1AC5263DA3B5B3BDF221B7BD33FC9A3C1CF42BBDB9ADA0BD3BC6733D50CABE3C128980BBF96D8A3D1C1D943DD8A7D03C910CD8BBA4932F3D64C0EABB5EE6EDB9283FAF3D92CE343DAE32853D65E12F3CE5A3223D58B8B2BD40708FBD090DFB3A1D9970BD56F15DBD239DB83D30BB85BD25649A3D4C3CA8BD3652BD3C2A0A36BDD2897E3C36339B3D96C0803DBAD9673C5DA8E4BCB99FAA3D2ECD86BDEFAFA23D5D8756BD8741AD3DC4C331BDA2C6BABDB596B33D1EC8B53D767FAABD8EF4E83CFE8E5F3D6CBE4B3D6756773D03A9C4BB4656483CACB56F3D97994CBD98A4973DA74C3D3DD495623BC061923DD69FA23D890F55BDB411153CFA81D63C28FF6FBDD2A5F33C5043EC3CC45716BD1392F1BCC34B81BCD8AB83BD5F16993DBB03B93D955F3C3DFC56A23D21C4BBBC9B6A0E3AD6D687BD5694833D11865EBD4E052CBDC804903CEFE524BD8DD0993D86AF1B3DF0D281BD541BA93C9204673D971E733DDE6C83BD242292BD3162B73CD56FA5BD9C5858BD4C078D3DF99C5C3D46EC49BD7FE80D3DB0E6A73D106091BDC23196BC1330A13DB97EAEBC40DB423D55616BBB6D5212BCB8A9BABDC1637EBCFD85AA3D88979ABD1921EABB9868A1BD0DF3223C19F2C0BC1763B0BC7AF358BD31FEA6BD535945BDDF5366BD3B84833CAFB766BDCDDB8BBC5915ECBB5E7F0D3D4F8D60BC74AA5DBD5CD8FD3CBAF65BBD3286D43BDCB3A43DFB5D88BD66D0543DD60752BD3A23D8BCEE75EC3A1F2274BDC9E7913D460554BDB97C7B3C40F08BBD1C756F3D793E8D3D94255B3C3DC97C3B9DC4FB3B4C50E1BB965AB4BD978F81BC6B74AEBD6F21023D2FDA6E3D6231C4BCBBF4503D5C93A5BD4606173CFD76AFBD85FFBA3CE933263C077C9ABD6499A7BD0D2211BDCF80703CDB09C43C3E40A5BC202816BD66F490BD43E57CBD8B1DA4BD6E4824BD2DD2993DA3B967BD68259B3DB125503D07576FBDD231183D8C17193DA11EA83D365CADBD202BA03DC50D09BDA8DF62BD6D9DA43D9C53CD3C5299433DD779163DD527723DF89DC4BCDB6EDEBCEFA0A8BD1B686E3D185B5BBD85E944BD039D1A3DE95C4ABD62CEA03DF30CA7BDD79306BDA77EB63DD422543CC1646EBD81885D3D370AA53D1E07AD3D96653D3DC437B13B191D113CB305C43CC00A543D3F6612BD90B7053CFF9A4A3D30F8D4BC2C0EA03D46607ABD02258A3C971C8ABDF706A9BDC3A41BBC2DA2B53D8AC76BBD0C8F22BDC8C8863D84B5663DE7A1673B94D46A3D8FE197BDD1A2B23A8A0387BD9E6989BC24D73EBD6E17233CD7142EBD1475AF3D650C3BBD2DD3913DC4648E3DB75C5EBCF47F58BC104E77BC176E953DD915D63C0EF8A73D7E321EBD29E9A1BD0ABCA0BD39DA5EBDD32D8B3D60E6A6BBDAAB783D9D4C7B3C527C1B3D1112693CE8C0C7BCFD89A1BD61DAB0BAFA86C8BC5A3691BD798754BB0A01D03CAEB131BCE9DB843DA4D1AFBDD30E65BD0EF5A7BD7482BABD4119A5BD1A07B8BCA98F373D4958DE3C69B8293DD8AB08BD72163B3DC2037CBD5CE089BD2BF1AE3DA1019ABD261D753CAA28333DBA7087BDE6ACA4BD39DA3F3DF069F63BA55B55BDEEAA6EBD44C544BD24CFF73C5CD8903DD4AE7BBD40C8653D5553B23D0672353CCED10EBDB2CE6F3DE7E49BBDFDF941BCA2D5B93D823F813D26DC143DD532563DE90BBEBCE7104D3DC4C4A4BD6E84CFBBCEC093BB951820BDF00B623D262071BDD8DFE7BCCD85B33D6E133DBD03835C3DF48C193C82C8B33DDACC8CBD709CA8BC9E334EBD182E8DBD5F2277BD606101BCB9E372BDD3AD423C37582F3D2237043DEE5362BD730C49BD7321A23DBAD92F3C2A3BA03D3B54403D86452FBCF411753D3E999DBB6ED147BD5E6DACBD140C3DBDD54E403D91C6B6BCB3A2C3BC5802D53C8B3ADC3A4D6EA13DC10A5FBC68E9883D0AF7A0BDFA089E3A0F9BAABD86E2553D957122BD9B4525BDD1AE003D550F5D3C7795DC3B8C63B8BDD0C58FBC23C653BD3C9546BD3B51EF3CA78381BD7623763C2F23823D14D518BDB8F360BDED4F993C1B6DB63CB49A6BBD3D3A68BD05A74FBDD886AB3DD5D4E8BCD8D67EBD2833E93C209D683A8A1087BD441ABA3DE4FD90BD9D65F7BCF64A8A3A5A4D483DD573893D3ED7BABD9D15C93CCD66A03DED1F413DE03110BDE8F427BD5ABE60BD056C6EBD2A9A87BD4AF2983D8904D5BC061085BDBA447EBD38F3243D46A50C3C754DAFBD87A31A3D4D3955B98B68683DE9278B3D3460853DB61BEA3B6EE5AF3D079F813D58E4AD3D95C20B3DB7243D3DC77EB13D0DAC1EBD78C322BD94100D3DAAB9ACBD52257C3DB74192BD9CAFA3BDC4E5753D922A563DBC530EBCC11BB4BD5C89753DB2BBAC3D5C9D5F3DC95178BD9795663D7343773D08D2F03C66C7DCBB0BAD853D308584BDF96CA93DEFE794BDAC599DBD3926A43DC233923D21079E3D97662FBDA6E7673B6D9545BDE6D95D3DDC0665BDF63A8FBD617F02BDB985173D460B973D377010BD2B949E3D097A59BDAF6898BDC1531E3DA81B3D3DB82CECBCC83BEF3CD27D273D0F4F5CBDF331973D5FD4AEBC09F774BDCEAF4C3D21DFADBC0C2C8F3DED8CC6BBF47C8C3D4CA5CC3AE4206DBD3FA6F7BC1B61903D5AC62BBDDC0F4FBBBC51503CD34A2A3DDC24B13DF4B9143D87FEEB39D374B2BD3EDD9D3DF2DBA43D01E18DBD6AD808BDB6BDA53DC764903D7AD4B5BDFBD4863D42C0AABD6983183DC31774BDEBA39B3C93E1DCBCA166FEBC1DD2A3BD1D4C91BBAEF31F3D0939B03D324C1DBB1B3E88BD5736B33D158A50BD7075A1BD7674FBBBEF87953D0DEBD33C1A63333D6ECD1E3D5B955E3C2F0F593DE312AD3D947D23BD93314B3C0226A93D8F7417BD51C0B5BDF1D2683DFC39B5BD5551213DEFDD9A3DF74EF03C86C27E3DBDC0BA3D73D3CE3C289815BD13EE4FBDAF21B7BD4623343DAA9E673CABEBD33C26FF03BD68F71DBD1485A73CCB59AB3DAF1BE5BB930D72BD0F0C48BCA8828E3CEE95F43C1D81D33B2017D63C1499313C6FEDE03C6E1BF33C7301983C1C5F37BC57BBB63CF027E83C855795BD367F783D1F1A91BD305D6BBDB98EC4BB75405A3D8CDB88BD7832B23DF662473DA919ADBD24BCA7BD642A99BD083F413A001E033D8F47AB3DD60DCB3CB75225BDC9410E3D7BFD903DBB1B8EBA78C58ABC92A7B4BC30FD83BB0AE89BBC950AB9BD8085FFBBB0F916BD08AB5CBDAEF0BB3C72B97CBDC85B0BBD94CD7E3D4B920B3D17A399BD5D56B5BDECE8033AC4A8903DFA57B03C34445BBD6AA684BD562443BD4864FBBC45ADB2BD006C2CBDC3A409BD70C49B3CD61E383D312610BD031E6D3D46D8BC3B95049D3CD000DBBC501E353D8DA57EBD4FBD7BBCB94C213D28476FBD24E59BBD00AC7CBD2BBB40BD6C5135BD8E3015BCCF49EDBC6511B539142A933DD84D683D475E453D0A6E4E3D97B43FBD2C27ECBC60590E3DF794723D991174BD3944BA3DF077B53DB5C83FBD2C05A5BD4794DFBA68F2903DF6E825BC7F195CBCDE5484BD73389B3BB5A6433D674D963DFC8EF5BCF74278BD6C3457BDA2898ABDE8A653BD3E278D3C3903DCBCFF44593DF6631FBD5FB42D3DE3055A3CDCB9E8BCDA7C843D480F4D3C733E763DCC24D3BC1C2033BCCC0834BDF9D32A3D186387BD89F9FB3CEB028C3C97FCF33CE88EEB3C97B5893D507EC73CA9ECCCBC914BA53DEF51383DB59F88BD21D4A83D63BE953D1D5BFA3B3F95893D92D244BD7ADF6E3D9762B0BCB225A03C0288E6BCA7FE403D0E1CB23DD2F60A3D436022BD1C0C3F3C633E93BD29EF34BD501D64BD54F385BDC978423C7B0E69BDFA44923D20F2253D873660BDD540B9BB44DB553DDE95483DEDEB84BD370D223DE4B72EBD42B0C0BB304299BCAC5BA5BC475D6EBDCEF5463D70F696BD4C7B23BB363F63BD3DB5FABC618C51BD06974DBBE8497DBC4F35D2BCD8CDA33DD0A203382F70AEBA8A583CBD1A7C973CAC3D2BBDBB1F2FBC1C4709BC629C8ABD378A01BDD8E79A3B6997A53DA13F033DCCCE21BD09A0BABDCFF1A83DF28A4EBC9D6FBCBC4B6EB0BD049774BD773791BD8FFBC4BCCF3103BDFA14403D395C1B3DB8C310BDD606B7BB7A7D1FBD9A625A3D84F3873DF0B37ABC56196A3C0BC8FDBC68611C3B2A8F3FBD5963A5BD14A17B3D0123F9BA8918803DA5F18D3D5123693C91E4F5BB4E7D6D3D68BE78BC6A3D8ABD3025A93D4CE0963A88BC8F3DF5B53ABDB71D6DBC8C4111BD231E98BD9131B6BD0D7FC33B1A81373DFA85A43D8BDAD43B561EE43C0E290DBDE67181BD37B375BDB617F6BCD3B9943D6F87BA3C9818AFBDEC01A4BC0910E6BC08FE6DBD405935BD784F823D83A21E3DE3396C3D7F3679BC82D65C3CB6C888BD5051413DC56D133DDB551B3D629689BD30D671BD6062AB3DA1D674BCC940AEBC88AF213D6EE094BDCDD22B3D8ECA4CBDD1FC56BDB1A2B93DC83F67BD8434F8BCECAB243C13D38CBCE028BB3C7338ABBDC4AFA3BC53B840BDEC689BBB2F6E463D6160BABD39FBB8BCF9FC163D32E4383DA5060A3D75E9073D7DE7CBBC1F933F3DCB0699BD13163DBD540D10BD4CC910BCDAD07ABD383D973DD373FB3BFB1F33BDD1D112BC939E103C79AC803D6EDAFE3CDACC783D9D92B6BDB8991FBDC46BFBBC3F922B3DA5AE8FBD7D1822BD61614C3B9C9A99BDE27CADBC3B74B4BD4F5C4B3DE55871BD65BC91BD6009163D82FD713DA25B113D389B59BD564F523DCD5BB23D679799BD18253D3D4E6340BDE9E99EBD8C93823D5A8DBA3D8850A33D4A2B2CBD4416583DA063A13C6990ADBDAF45EFBC14CC84BDDF3522BDBEAF0EBD029A0CBDE6A65FBC1EA8113D3BA8AB3D1320D63BA66412BD86D72EBC8E958EBC3E684E3DB2B9643D729D893DF33872BB8A9C6DBDA63C533D6ADD28BDB022973DF50BB73DB426363DD4891E3D647D2C3A17F4E1BC3547A33D3E451F3D7DF903BD466EA5BD7BB0B43DE47493BDF9DB433D72C80DBDE60703BCF5EB813D58B274BC535CAE3D4383F4BC31F72FBD34042E3DC8EC433B24438EBD690FEABC7BAA9D3DEB67EFBCBCFEE83C810AF53CEFE3653D325D98BD3B9466BDF7DB903C0CAFB13D17758C3D1536283C90D91FBD3EAC993D97A954BD7A8A00BD3ECB8C3DA7F20D3DC91A15BD44A09F3D30EE483D79C2D63B2ECAFBBB7D2CF2BCB71577BD7DD2EA3CF5FCE53C952D21BD08D139BD7C1355BDD029953DAB4165BDACC382BD2C93633DB1C2C9BC7AD4CE3CC8E068BD5654853D053953BD6D5D47BC8456CCBB4C33783DA0F2D63C2E9C50BCE78E8D3D125566BDE97D5B3DED510C3C347DD43C7A635ABDDEBC633CB4333FBDD0FE21BCCAFD903D20D8703DE23668BBD27399BD35D6DFBC61E41B3D3E4D77BDB2B78CBD3B57923D357773BDC517B13D2C42AEBD6EEF24BD85622CBD9171A7BDFAEF083DC15B7DBD685A4CBD0AA30D3D8E01783D1CA994BD357859BD9599953C2030793D6BF9863CA65462BC6E92A43DD312793D5313AEBDAF4C9C3DA0C55B3D6C339C3DDCA50EBDB9E29D3D0BD41ABDD05CB43D3A0598BD705CD6BC9405BA3D833BEE3C1C32C7BC3DF0FC3CB80CA83D19E87A3DC19E72BDBF7CAABC72234A3D7C7BEBBC43637D3DA1F8AABD9AEE30BDC8CCB6BD405B9ABD3FDD77BDCD52713D92DEE63C05B4833C977E29BD877EAE3D6ED499BD918455BC80FFC2BC62EA7B3DE0F6B03D8D34D5BCD6F514BD6898A6BDE513FFBC301660BDF572AA3D061EAF3DC68094BD43D8D1BBDA107DBD469EB43D45778E3D8BFCE83C5EB633BD43137A3D9E71DEBA85D04BBDAA0E7E3DEADD163D9934BABD7825C1BA288F6B3BDF25D3BCB91DA8BDF52C483D19549F3D9DD4C0BC5508913D3C22143D45B3153D57AFFE3B138E2F3DEA4C9CBC70270D3D3B59B03C1405ADBD3C24633C487921BDDB94773D93C312BBE824C6BC39BAA0BD6EAD083C2C690C3DF67B5CBDC1BD903DDD2B3B3C17D152BDACA474BD8C7C68BD6865EFBC69DB50BD7CF7CBBA174E6EBDF04E80BDA616C53CCD5D80BC0EF126BCEC6D423BD42FFF3C63DA393DF558923D7550023CADB285BDA8656BBD2776993DFCDE82BD2E9990BDAE4FBABDD09DB03CB043733CA0A0323DBF1E753A9ACE9E3DB45A6B3D5F5793BB5E7465BC45B6CABC8FDE3B3DA2D19E3D64BEA83D6E469C3D3B3087BD797F8A3CCE9B30BCC1AC6DBDD3E6803D21639C3D56E758BC4E1280BB977542BC150B4DBCBC37713DC03FBABC5610ABBD0282E6BC7D2E7ABD63B3A1BC9D45A4BCB90A17BDC624EFBA41B2B9BD75BD4ABD353D8DBD06F5A7BDD9101DBDA5727E3DDFE37CBDFFDF99BD9DF5273D53B8473D6108783A38D49CBD5A902A3C6BF6823C5162CC3C9097513D0E34A2BDEB9C75BD17EFF2BC08F150BDF8EC33BDA590863CEEA26E3D21BAE03B62E9A13DE456ADBD41C508BD7EC31B3DB5054DBDC24A1D3D512DB2BDC529083D9600AABDD5558BBD57E739BDB07EA0BD91B8B2BD8E26053CBDE7B23BE3ECEB3C57B7963D580CB63BC63D5CBD4A4274BDF28AAFBCE0B0833DC70EDBBC790437BD544572BD23EB073D3BEF233AA84CCF3C6E013FBDE7E8DCBC341A80BD63A3193DD132353D3B77B0BD12D68FBD1AA0213D38AD9A3D5C7F6D3DB88931BDA4234A3D3781F33BEC1FA7BD2DDA103DB809953DA056D5BC6831B5BD0454D6BBA3153BBDA946B2BD39101A3CBE10463D34F4533DC6AF1FBD0818B0BD5D74D53CF9FA0ABDC009F53B0F4BEB3CB55BA8BD1A5A83BCF07F573D417BBABD9F3C2FBDC866893D1E72483B54E69EBC35FB72BD5FC30F3DE1608B3DBD67B8BD459EFBBCBF273FBD1C70413D572AE7BC9F05163C77D3BEBBD2A893BC8A36B93DEBFB5B3B46F6833C9CB5553D393C683D4056913D49E1543DCD3AB23DCD431EBD4E17DCBCA90AB53D5D739B3DA124303D4EF190BD00BD4DBC6A620FBD282CB13D26F765BD208540BD2E9623BD9263BABDB9C15ABDBEDB583DE5E0B83DBD27A4BD4DE5B33D8E077E3C538D9ABD3AFC5B3D0859B0BD72AD303D99B99FBDA8BB55BB4B75C53C2D343DBD5EF16A3CF0F90EBD781DE43C14BF713DD9C3A0BD575C803CF6D1A8BDF01A8CBDA58BB53D049CBD3CB0B7B4BDBBC6613D203801BDF2728ABBC4A8B03DE8C29ABDBED1A7BD9DBD10BBEB36F23CEC5F5B3DCC3662BC1177A03D02CAECBC6401B13D8A7EA03DB40EA43D03A0A1BDD6E692BD49742FBD01D5853D5D58A3BD20511DBC75ADA6BC30C89D3CB0ED9CBD6451E13C66EE78BD103FCBBCBAB867BB0295403C8F23D4BCB98AEC3C9909F7BC25F19BBC65C0243DD2556CBD10F54A3D162DB1BDC3DA8ABD297EA4BD7C34083D3F59B93DF4E23FBD2670383DAC593C3D234715BD693BB93D8AA65ABD35D58BBD293B943D9E052EBD4552973CE0572D3D83E5583DE09A1ABD7FA03F3D1BF1B5BD9FFF04BDDB71AA3D38A097BD543C37BD202B2ABD261E0DBD3050D53C8A8591BD69B7B1BC00C19E3DA859E63CEC0A073CFDD5A7BDDFBC8C3D3FCD1E3C1E68A3BDC8E6673C84D9153D097D833DF9F360BDCB8FEE39A5846ABC8D1A7D3D7FF6A7BD923089BD34CD6DBDCBE3B13D7A450F3D970652BCFFF24DBC972B98BD36437E3C47BDE3BC8C71103DADB4B93CBF20B53D016E6ABD55A78E3DE7BEAEBD1EB5B3BD3BF9893DD2DE3EBD9E3699BDA7BB4D3DC03E1FBD3058B5BDF19B37BDE16C79BDC09685BD1169AABDEA54A4BDC25E383DC890863D6B1E81BB9FD3DDBC0AD627BD0BB888BCA2BCD0BB9CF17C3D17D7F9BC6ADF9B387021433CA6ED92BDEA6A04BB2135DA3B8C1AC0BAEB5D28BD45F2603B1C6024BC0982B13DC6A5813C061349BDA24D203D6D10E0B8C4417FBD0096C73C80DDA23DD142833D786953BC071D14BD01C2333C6840073D85858DBCDA54B93D7B5D033C50D9DFBC00BDA6BCE78785BD0C840ABD70E9013DFD97393D52746B3BDE8A873D7811843D81793BBDB1139ABCB823383D7674D4BC1AD0A3BB374C77BD24675ABDEA8410BDDC1EC33CEADA9E3C9BA1B2BCBA518DBD2F8F8B3D903BB0BCA5E6E4BA25345DBDC61D77BDCCCD0D3D9579FDBC6D9C16BD1D1212BD202986BB5549A7BD1AF0B23D3D55493B63B9633DBE1C893D73D836BD1105A6BDE308D33C95BC6BBD18E1A03D56B197BD25B582BD98D72FBDD9D638BC4A7597BD5DAAB5BD4D72B33D498C533DE423F13C620E32BC143F6FBD16B3A23D5AB242BDCB70C83C853FF23B62F79A3DACB2B73D2C36803D3DE922BBB5282BBB6C06213D39F8583D3C41933D2B4B40BD037F053DA0663ABDD6F3B5BD2C41A9BD9E0BB2BDBEDE86BD48D9C7BC8AB12F3D1A5CE33C28CD923D0BA9A63DA9C6103DDDCBE83A78A7353DA8FA80BD2777693DF9DE9BBD59E6A13B4FA4933DF386A0BDC567063DF0A3373B21ADD4BCD7B10ABC084F683DA2EE933BCA829EBD2A494F3D5A3B073B4D6A64BDAED89E3CA40CF93BBD908CBD4D03DB3C5A03B43D63F748BDEA90413D47D59ABD4F7DA8BD2943BABD4D7BA2BD5BFC1CBD7070843D1DD8AC3D84DBAEBDB21A243D6D04333DF63C9A3DD7F0233D87C487BD0D42323B8907B73D2EF886BD1545983DB6494F3DC5CFFEBCA485953D7241ABBD5963073D5F97F1392ABCB0BCD073A03C9B881D3D4D63923DFD789B3DCD282BBD3CB88FBD516CA5BD23F2CC3CB58FC93C65549EBD7A55A73D9F44883DF558F93C7E77C1BC1F7489BD97F866BD6F6121BD35403E3DE7EE80BCAEFDB0BD1D47D43B2DB386BC72B0A33DCABFE3BB2970A8BD97D5913B2939003D56DE523DE44B83BD094B89BDAE148EBD6F1219BD885C8B3D095A273D225891BD02B4463D411C62BD942E733D52308DBDABB2173D72F4913D205B65BBDEFAFDBC9E3951BD51DE223DECF23A3D87C0B8BC77D43CBDC0E4E7BC7F96A8BD9C22923D4C5825BDAC57F73C12DA9FBDF0042F3D39D47BBB74E921BD65B1FBBC53AF1ABD64F7813DFF9EF63C5F3C3D3C487302BDB7C5053D345FB4BB7ABCFF3C43FDA8BD84FA69BD53E0A33D732592BD7D924BBD019192BB89B2493B1F951CBC26D199BDFCE19CBC2FB7273D3630D3BC552D93BD01B2A73DF7A1B0BB7311CABCB6B5513DB4A62DBD2F9A37BD0E8D9C3D9183A23C9C90903C19819A3C4729AE3C9B25393D178ADDBC1877923DF7A42CBD89257F3D93BE263A50E6B6BCBF92963DF40745BC9294703CD844773B303C81BDFB599D3D7D51B3BD9E1C873DB7308E3D65D6E43CBD776D3DE3E941BD5687743DF77C9EBDE583083C1B6A8A3DAC34CC3C65A09C3C853649BD5C4043BD2C74AABDE74A503DBC43493D013A983C5B115E3C3212C0BCBAEFA43CDAD4E3BC7C1BD93C522B2B3D1E1EBFBCA46CC53C97DFA4BC9E9FEDBB41B2663D8F8CADBD9CAD43BC5EF0483CA7957ABDE7FFBBBCF9D923BD5325703D02F87B3D68174DBBDCCFBBBC7BF55E3C7DD12F3D4F1559BD8F0849BCC1B2DBBC030F473DF6D820BD84C5D5381BF447BD1F2596BDCC60D6BB62E392BD093039BCDE3931BD0EA8A9BD2F82BA3C72EEB5BCC7817B3DED6D783D7642923D9E1B9A3D62837ABD84A6133B4D7CC2BC95316DBD48EDD43C85702F3BEBEEAF3DB0C0DFBC6FA4DC3A9E4672BDE26894BDB1F4853D549EB63D02B66A3D33900ABCF39B903D27E66E3C2C3927BCC252203DA2739BBD7C86B9BB7C9B9D3D74347D3CBDD86C3DEC5B283CC71AEFBC0C48613D42D82CBDDFA8583D788D593DC9A4AFBD5471813C3E30B13DA68A40BB324FB2BA350E03BDBCAFA3BDF711973D06E0CEBC29F76CBD2A8E3A3DD9B893BD699E803C1341533D1118F4BC06DDD23C5AB7853D5C2F0BBC092F99BDA8908D3CF3DE90BDE26A6B3D61C1A0BD16C742BDA56F93BDE66A143DDB6B1BBDCAF87D3D6C6ED33CE7779C3DFEA1923DC6AB523C69F7253D68CB8A3DC490963D27E7423D7F4479BDEAA34B3C96B6423BD39F903D9ECAA2BDF2ECEC3CA1D2C83C5801B53D6D9C523D69C29E3D8FEA9A3D173096BD6CFE153D9989A4BD1BE6873DE07740BD5F4736BD78A7A63DE7CC1E3D694A62BD65E549BDBEFAC93B840996BD0ACD453D5F4D27BD6912803D556B493AAB6E513DD801D23C060F983D8AE174BC73F31BBDAD1AEBBA4BA63C3C0854B33DF15F873D8496753B6CC88F3DAC81E5BCCE6F913CC0931FBDD956813D9AF9FEBC4454CBBB207E98BD58D6543CFEEFDABBD35EB73D22B0F9BC8E4F643D427F3C3D4F00823D88B0F53B2BB1E2BCAFFB0B3D76E9A03C3CF6B73CBA37B33D3571F7BBF3E533BD2E617CBD2E84253C413CD1BB9DE493BDAAFC9DBDF847ECBCE55026BD242D76BB566ABA3B21C930BC00D408BC5D4C80BCC2DF74BB145A91BDDA8C96BD0CB71DBCDD76793DF06FC1BCE42D593D4C8F7E3CF4C093BD0049BCBCF4AA12BD112D153D92C68B3D6E3E183DCE37EABCF721E4BC1709883C9149063D4F6B573C816C843DCF4943BD5F816ABDDED4BD39ABD39D3AB47F6E3DB8CDEA3CFFEF853D2C61813D98BE02BCD7ECB23D48CEDD3CB1E29E3D19F23CBDCA2194BDA167723D53E529BD92037A3CAD7F29BDBDC8A8BDA376A73DBDED0EBC817F2C3D2D349FBD3F111D3D224FFDBC58CCA53D658F35BD3BE83D3D219140BCC8FAEEBCE85728BB7383EBBC53D4B1BB7BB9963C507B96BCDCF0C13CFA2C4EBD5CA1B13D844368BD701B55BD9A57C53C5784793DD3E5AC39ECE7E4BB3773B93D224387BD2E6936BDC992A83D95296D3C2618DCBC8013D33C17D153BDFEE7E43C3AD3733DCC2C653C525FA5BD9134793DB271EB3C46E779BC7B14483DBDEBFABC5B9FDB3BD595403CE515723C54A3803DAD9A383DB9EFDCBCFA39A3BD692EBF3C3B19223DED489B3D58DEA63DE25441BD62FE543DBB7C9EBDF1E40F3D2C09F63CC0BC873C940F0ABD6344B1BC30F588BD64437A3D48E5963D56914E3C1619A5BDC39AAF3DF1BAE43C9BCAA2BDF42D513D2FF2ADBD2860CB3C7B86BABDC694CFB95A807EBD7CDE643D209FB9BD6B97E0BC4504BBBCED11813DA36C673D2B20913D1B32CD3CD33D113C955D663D82B593BD20924BBD6DA891BDD38682BDB84EA13C02C3EBBB22AA8A3D7F5D01BC396CFBBC68F55FBB552B783DEC365B39E0DA7BBD412EB23DB892B6BCE75901BD66C3093CFBCD7F3D3F249E3D0D0680BD0FB08FBD10407EBC396E7F3C2F056D3DD93A0E3D3BB0863D5870F4BC2349A73D8867293D9905CBBC3A7439BC5A508D3DB95042BD82A374BDC784993D2DAB3B3D2BB6AE3D4FBC6ABD9F1E2FBD88B2613D920DAE3DD5400CBD29C63EBDC95D8FBD997039BD5ADF923DF209A83B764891BC8713383DD96CADBD982244BCAA29A7BD7FEC0B3DB25BEB3C5B0E93BDBAD4013DF73D9E3DA6D045BDAAA009BD8BF6A4BDE6251FBDC53167BD6928FFBCF2D15DBD5577613D82B3B13D28E8953DD0BFB93A348D5F3C3405063D98B376BD243CB5BC27958DBC258EFDBB2C2067BDA8D4993C1A455DBDE219B7BDC10C1ABAFF9DA63D51FB6D3C03DE42BD886581BCA84804BD169A88BDD61513BD126A9ABD7E9C87BD1AB9B2BD06ABBE3BB3C9BB3B7573DF3CFCD5643C89362E3D10562DBCA005ECBC61B5BC3CEBD292BDAC938C3DF144893C16B983BD03A8A8BDE2BE86BDF3B5353DA7D7643DBF24353C8B19AEBDA3C7183D7100BABA57EB03BD47159C3D6D39133CB6BAA13BD5B2963D235D833CAA93B6BD9AA4B43C4F870DBDA3DD12BDF64F0FBCD3F3803DB46C46BD23C3B93DE53B7A3CC94B8BBD9FD742BD3BF6F53CF04AAEBD6075993CD69996BD6CD6423DF01AD3BC091544BCD239BFBC14C8B03D341E02BC5D1562BD7325AE3D9F427F3D6411863DBAF524BCA0CDA23C4A13A53DA55FA53CFDDD913DBC2F2ABDA0FC1B3D6DF88F3DDA4058BD572676BCEE702BBD296587BCFBC0F03C6624A83DCC6C8F3D7A89A53C2B0D17BCB40CE63CE6B38BBD7085493CD13CEE3C3D75A7BD1534903D0BB20DBD4DCC1BBD53C3A4BDD70D0DBCF7F1D6BC1BA4633DEC59473D6977913D72BC243B3AFA213D5FB98D3D2734863DBC14703DC1DB9C3C2FA38EBD81D0D1BB0EF8A7BBE2A1FDBC836DA3BD8470B13D72830A3D8927B8BD2220B5BD484094BD9C7573BD64212DBC2AE6723D3C513E3DB09B893A2783B6BCF0718BBD8710993B3ABD373D8BAA323D8698B9BDD47A833CB6048BBD1DE745BD957D863D116E8A3D91AB713D27DDAE3D0D94593D8440093D0F1CD3BBC91069BDAD0BB53D2C9D5ABD324BCCBCB03A34BA0B3C02BDB74468BC0A7127BD9B1796BD659F593DF6C08EBB07FDE2BC0E403D3D13599DBD4EA08BBD59A7333DD80C81BDDBF99FBC059980BDA1751D3D5E4B5EBC6AEE1DBD73388DBDE605EC3CE6E0A639B9B987BD5E3D53BDC21013BC0A9C853C1EA95ABD5D03C5BC554BAC3DADA7553D04B7AD3D5020B6BC493DAE3DC0AD1D3D415B18BD08C9123D8073B0BDF5417B3DD53414BC70D7A93D08F6843D42F066BCD33EEB3A684AFD3B8CDA1DBDC47EA63BE2DB01BD8BB047BCD775223D85AA9FBD5C6907BD4CB487BD9B9749BC7668B4BDCB126C3B9D2B0DBD4DD25E3DF25B523D566EA5BD8C9879BDBB5DC93B84D5A3BD5FF85FBC2D1B9A3B930BA93DBF6395BCDF21853D13B8353D0D9D8C3D544F3E3D7BFF43BD1718E9BBDB04F13BFE96ED3CCECA8D3D030F853DFB30CEBC413A853D839EB13CA8F2A2BDE0C2B53D3782C4BC8A0CB33DF8834ABD9248E83C3608B6BCC898B43CD80758BD8FE8323C4C21AE3DC794BABD1E86393B9FAD51BD32C47D3D5575A4BDA351BA3DF1D69BBD4ED538BD7B7CA7BDF004B1BDC30791BCB8B030BD54B9EEBB9C7DE83C12497CBD667EC5BC217198BDDF7AE53CAF17B9BD8F57A1BD0DB8203D3919AEBDDD656CBDB52CA23C6B4476BDBCF119BC5F714ABD5A91A5BC7C28423DF34E483DAE7C1D3DE5CCF03BB85A913C6C6C593D715D453C4B83E5B9584ACA3BAED9A0BDF4E5703C18A08BBDBC98A43DAAE9AF3DA093B33D4F95D6BCEB2B173D97D6A5BD7363D8BC1531AABDFEAE28BD815AA23D6C18EDB8ABE3DABCBF41973CEF26B4BDA040ACBD1913A53D681E17BD78E5A5BC14034B3D726C60BCE801A23D458A803D6381AABD16CE6A3D204B8C3CEBE71F3DEE1694BDA4DB95BDF267AE3CEF2255BD9B4E163BE896103DECC02CBD66551FBC07A12CBD4A147ABD6B3F3DBDBC8F82BDCE84B7BDD2CC8F3C603C223DE782A3BD2FF15FBD1846B6BD1E757DBD84A8613D392F82BD0E3F3A3DC392393DB09F403C006AB13C2B456E3DD137A43DD093CF3C031A20BDE98A553C86A3F53C1FF642BB211F703DA353863DD5DF563DA36FBCBCF35F3DBD05A78DBDD811363DBB9983BCA3A7293D79502A3DC98F90BCF520D1BC4DFBAE3D6FDA28BDD3F99D3C84E7023D5F910F3CFF47FCBC743C37BD0531223B80BA3B3CB30840BC2580ABBDEC4DE43C89C4753DEAB6A9BD5CDF7F3DDC7F06BD860002BDC68B8CBDA67D3FBD27B8553D2A56A63C86D4883C834734BC33F82D3D53C252BB2A09B43D3F82113BD70FD13CEE96213B37AD93BD2E35A03DF518D03C76F412BD2C0AAB3D52F8413D403820BD4F7F953D737F573D09AFFCBC7C658CBC60E0513D1323A5BCA01D5FBDFAC12E3D17E2913D5E25A13CCC40E7BCC5DCAEBCC18BCABCD173A6BDD01E193CD7CF873D92E91BBD9ECF21BCF52109BCC1F3E0BC05E8CD3C1AC8B4BD2D90C23C56FD20BD2FCEA0BD5F59833CEC89063D2A558F3DB9AEB73DB58544BD54D602BD9B408E3D8FE9B73DFD58ABBD4D8B903DB97A503CBB548B3D8B4B6DBA0136483DE853543DCD9943BDED70B93DED29A6BDC14C94BD7C1206BDB44A8D3D6A8C8A3D5001A6BC0209273D863B80BC2C8BA43DC9A4863D6EB9433D78C57BBDE07991BD3D993BBDAB70AABD552473BD611FBEBCF5CCE03CBCD528BDDCC41E3DC49ADBBCCF098BBD22BDD6BCAE7C71BD03D7A43DCB185D3D707F543D454402BC7652923D5C32B1BD526883BCD89F57BB8002933DFF36B33CFF4A6A3D53BEE93C976F4ABC98E6F83CFC0F05BDFA7AB63D3BD62D3C7C201ABD9B20C73CA8B2CB3BF4A8D1BCD162B33C9B91153DE484B03C62435BBCA8AC3A3D155A80BD177976BCEEAA01BD4163DF3C7901843D240E7B3D2E474F3D68FB503DB4C14DBD097A853BB5B8F73C888F6ABD41C9293C005707BD38CEB13DF5E5863DAF19643DAF3A373C5ABE443D0DD0FD3C3635ADBD5C77833A3AE57FBDF265573DBA1395BD5637AE3CE1608ABD2E352EBD10DDACBBBCDF773D027F203D87D4023DED79A23D40F9873C92168B3DB940B0BD9EAB3EBDB2A9E3BCE1E293BDB3B9B83DD0EB843A1F01DC3B10F65ABC00F7823D9D8280BDB41C7CBDA4879B3C14E40CBD593941BDCE2FB9BCBAA713BD21A4843DB213A2BD064B81BD9A239F3AABBE8C3D0AEB4C3C2B90A739A43A1B3DABD48ABC1E9C4A3D287EB3BDE5F66FBD5427283DEDC495BDB9A2A7BDD999AF3D841F333D4894533B8627A5BBF61DB33D5C32D8BC40AE6E3D9BD480BD6DB9C1BC1BE9A1BD129975BB90F4A2BDBCEF433D74F4853C2EBBA63D3249593D5F7284BDCCE8233CC77CE1BC67D2BA3C574CB8BD4310583C921C2FBD16F003BC691A8BBC1DD941BDEB7D9B3C037E953DD5F15EBC51E5233D6FC36C3D274EEF3CC98227BD25A90A3DC5593EBDB7F44FBC4C1408BD4F1C48BCB4EF123DDB30AFBD24FE3EBC4BB53A3D890D2ABD5BDC103D89FA873D0EEE983DE84396BD973C21BDCF4B20BDBE66BE3C23E7A1BDC87100BDACBDBE3C49C4593D49D4CF3C18E10EBCDE19ACBD09A727BC68D1203D80AF943CCE658ABD08FB843D8EA406BD47963DBDFA122D3D4496AD3DD3544F3C657C593D9569013D79600BBC67D8E43CC1D99F3D44C094BDD1310CBD521650BDBCE7AC3D355F243D3BA4993C3E6A243C8C064C3C4DC7253D78004D3D33E0973CB055843CDE1B8EBD51615F3D210F303D7CAD8F3D5CEDB3BDD78FE0BC5D2B9DBD316288BD41A4403D5E05B93D16C593BDA3CFACBD7B68D4BC58CEAB3DC7A762BDF8CD96BD37EC56BD54ECC83C157683BC10AD20BDDFA99CBDAAC1093C56FD263D264F1C3A1C46653D41FD183D4862E1BBD0159DBD4B38203DAF7F9ABBE7881DBC5698C9BCDCC1C5BCF85982BD116526BDB5BA95BD38F901BD72164C3DC657B8BCD3F59DBD8D8C1C3D7226BFBCD2802EBD8A52B23DF028413C9FA4D63B51CE8A3D03474A3D4584923C0CCC8C3C216D603C4B42A43DF7742E3D49A43CBD7A4482BDCBA00E3D6900623DA7B88EBB4D8CD53CC8F93DBD7DC3C4BC4255283CAEB92DBDB51E9F3D4ADCBF3CFAB8D93AE2A2893D4D3AB3BDE2FF16BB4E9A4F3D44D81ABDD32C69BD4AC9B2BD0585F43C27DEA9BD1005443C93E3A43D85D9473D8AD343BD0DA41A3D1B7E7FBCB08C8ABC8EA68EBDDD8AF13B86F7C13B5DE1A03D2873E8BCF0256E3DEACE86BD790CA4BD53ED03BD9FBD60BD8ED2063D0A45B53CE41788BD302A113D1571A8BD53F156BD47283A3D48B08BBD871942BCB6F4AABD1297833D11CB5E3DB0353EBDDD9197BDBA90873DD7917A3DACF2253D225A80BD91231B3D8141783D331853BDC940B7BD153B9DBDFC2169BD331EAF3CD38FAC3D8F339C3D2F640FBBD9CEA03C70EDF3BCC4F509BDDBF29EBC6DB3AABCF3E1A63CF976203D3631C83B58568ABD1C478ABDCC9074BDD69AA43D1C1F3CBD8CB87A3D634F9FBDF933E7BC24278C3DF4EEB03DBFA2123D3536F53CB550483DD7FC6BBD34C16EBDD3AD8A3BF49D853D2F85913D8FF1423DDD99B73D02FB383DF6B38D3DA8CF0ABDD96A333D00DCDD3C52FF573DF148AA3C981F933C53BFEC3B80FD01BD4750F7BCC12A83BDF16AB33C3AD91EBDC502A8BD86599DBC71A3B1BCB4FD58BD3E99923CCA02803C5F2C7FBDE761A8BD5691AF3DFFA1CB3CA85B2EBD78761BBD8F623CBDD7B92D3C0E0A6DBDB45BC33C1420CD3C8549453DA95C51BC1218123D3BB460BDAC7CCF3CCD6997BD6A2BBA3C9CCCB63DAE036E3DA8750DBDBACCB93D6A409EBDBFE01ABDA779AB3DAB451D3C9EB996BC29C361BD84EF863CF0C670BD1825643DE9846FBD56D4B53D9930853CE56F1E3DE0E89FBC52DDD2BC889AD13CAC9677BDA7410B3DA63303BD975FE63CC88956BD1308563D61EF77BD4F06D33CF7BCB6BDE0661ABDDB6910BD02D2A83DDD7B053DE53B8B3D4657853D71FD2E3D77B273BDE71FB3BCF00D473DD3AC593D12058BBCB904823D989F31BD06668EBDAB5A833DD56ADCBBCF32B3BD8176C23BC96D853D4FB9B9BC1D00AD3BB2A2E8BB0F6917BD31E2993CFC05EA3C94F39C3CE50213BD427F833CE0C491BDA42158BDE86481BD273277BDD0FF2A3BC322D1BCD7C9CE3B480D763C70F81F3DF9D816BD852C3CBCA9F812BC0D1F4A3D63B2453C24B491BDE6EEAD3C50AA583CC3629BBD5122A73D34DFA7BC0ABA983D26CBAFBDAEEB65BC3FDE88BDB84C953C6A87B8BDB81C053D697677BCC2059A3D92D6F03BAB73AA3D8AC61BBCCD07F63BCBA94C3DBA03483DC4C2673A9CD1813D017BE0BCF5C6B6BD02D41DBD4DF56DBD8B29283D4E8B733D853F753CF1472BBD331C98BCF0FA74BD0CD6A63D938E41BDEDC44BBD7CAA32BC370F55BD8021AABD13065F3DE8C30EBD9561483DC38CDDBB8A0FDDBC3E1E6ABDB0CA053DC002B93DAD7828BDD1F519BD4E9E74BD270BCABC6DB5153B1393ACBD4FCC443DD8256A3DC959A43D0ADFA13D1AC755BD6758CDBCD990A9BD7A2835BD8337F2BC26144FBCEEE8A63A06A269BC75B298BD8C57B53D1A7B8BBD85CE813DCD1E833DBD4A4F3C2049923D7F9077BD1CBD523D400AB8BD0AFB1F3C349F373D210B313DE11B4D3DD0D7FA3BB64B9BBDB0A0E8BB7E50623C8B82A83D02FA36BCB62CA7BDAE4F91BD835774BC9227533D392868BD69FD7ABD9C2C82BD5EC57CBDA5D4433DB565B23DCF69B13D72A791BD2E964DBD327A01BD0195A83DCEE22DBDF960153D136096BD4BF50B3DB50DB5BD528410BDCF3839BDACA598BDECB923BABC5362BD91D9B9BDE272483D0C601F3D8AC7F23B5189413DCBF498BD50E135BDD4C5653D59BD96BD4504113D89EA443D044B7BBD26E91F3C2DAA7CBD92BE103C8FDBA6BDF44F64BD6393FBBCF0B96B3DED88AD3D5A20943DA5A3063D232D4B3D920E61B9BC9BBEBC9CF1AB3CCE1F9EBDC53DAEBCBD1B05BDD723893DE9B8883D6AEFAABD44C63F3D11F27D3DCB7556BC4D75933DD8D917BD192A78BDC1569F3D3FBCB43C1A59CEBCDE5E723D026A343DEC5EB4BD39DD5EBD642391BD98CE98BC14F51DBD8A1EAC3DDD868E3DE663E1BC2EB2063D95E795BDE08D953CDD4D9ABCE49FD73C8165383D2E70683D9FB6833B549F21BCE1541D3DA1658C3D86C27F3D487B97BDE7C0813D26E29A3D951EA93D0E808EBC91469CBD93168A3D5BC968BDC1DF023DB6D8753D03919CBDB9681D3C042960BD30D7263D96A58A3C69E8E0BBB4043CBDA8F42B3D257E9CBD11542EBD5211493D0F3446BC2D2404BD93F0AE3D5BE83A3CB6DB283DA07D77BD0234613DD22184BD485D81BDDC998BBD96F994BD8CFCD4BC33218B3D08A77D3D36A2813D5E79A13DFF2AA4BD496692BDE1CF2FBD36BDABBD3FA49A3C545FDFBC2F62663DD7267A3D7DB2A6BD8B3D753D3711793DD49CDABA2B989BBD93849F3C51C2C5BCC77F30BCA81D333D85FD63BDCB4F4BBD43A509BDA32C023DE7771E3D34869B3C6BFF89BCAD8FB6BD28E5B13D1B0B87BC38924CBD53D955BCF208AB3D724CFFBCE409B6BD23198DBC1B51BABDDB3B9DBC4E930ABCF58FE83C71189BBDE9B0A33D186B273DCE30543DCE1D5E3D27A19DBD9B52F4BC1C8BDEBCEE1688BD2D7C663D3395AABD7539A8BDF132713D04F02D3C72C03B3D8F00843D039EFCBCAFA9AE3D024294BD2108943D7363463D15076FBDA05F693D7053A13D351A643DF84E96BA06BAE23C855EA53DE481AB3D7DB9003D095298BCAC25863D38435DBD836285BDE68CAE3D89E1B53D09FA06BCF5F575BD07C1EDBCF6A0CCBC0882B9BDBA3B2DBCCBDD453C3BFB253DE40BE5BC70F6903DC3F7A83D36F19EB9F03041BDFF971FBC321BA0BD51F2793CD20250BD6DB47D3D861D663CCDC8873C19E1B7BD1EB9A93D7F91AB3D809C25BD51BA343D8BF0B2BD4B3BA4BDB1BF70BD1DE48CBDC641FB3C1BFFA73C66975EBDFE402F3DB2737BBDC04D213D814C4E3DEB05393D2DD28B3D777314BD5E27803D268785BDBF35A2BD937BA83D1F33113D896B943D94138CBB6B56C73CA36FA93D10EE533DD0BFA63DFC62163DA17AA53DAF15B8BAD2BFED3CCE99903DDEC19CBDE1833FBDA8CE0EBC1BCEC63C34AD7DBD532F4D3ACC4F1F3DDF74313D7E3F853DCF97B13D095C793DF28FC5BC534F8ABD831913BD35593ABDC239833D92DC943CBC02A83DF6890BBC6CF5AD3D5240213D2575113DDFC0E7BC1A2E513BE9644ABD0FA4D53C2C5E33BDB17D5EBD3E2C3FBDA77600BD36748E3D531813BDFB31B6BDAD77093D8E6580BDB4C0283C30CBA43D9D3B883D120D7C3D9D0E4F3D6E272BBB46518EBCC5AF613D2FFBFDBC452EBA3B42C48ABD6EF0783D0A82833C5F759B3DD7FB863D6A60AC3DED5CCFBC0CA65DBD76929DBD6C9CA4BD25418A3D222179BDCDE45B3DD4DBA7BD9738043DA84B583DD94613BB9FEA8A3B57D58EBCDE68143D3640F7BC36AC89BBCBEA1FBC"> : tensor<84x120xf32>) : !torch.vtensor<[84,120],f32>
    %4 = torch.vtensor.literal(dense<"0x42EF263DAA727CBDE6BF18BD549AD63C70F3783C1CAE373D38232A3C9C9FE53CE8BEBD3C50CA0FBC20D564BB322E65BDB0D52E3C7CBBC1BCB8CF26BD429B313D5A876E3D0492BF3CA4C1003D1AB733BDE8E92FBD68142DBDC8DC14BDDE5E4CBD20C928BB4058893A641438BD64FD163DD00E233DAE3A4B3DEC221BBD10DA46BD3CAF773D4691643D54F0A5BC7CC1593D7268233D0418903C10376E3D04E155BD84D39D3C00AE1BBAA6A117BD5070FE3C148AB3BC90D3B33BA05A36BC3C7C853C5450C13C68360F3C9C30113D60076FBD98B1B7BC549E10BDA0E5923C340D9E3C0072353C982E8E3C50F4C43C0C6240BDF8B9713D4855BE3CF8D54EBC68A16CBCD8E309BC5E890B3D9495D5BCD0FA1D3D409DBEBC0CD66F3DB82B303CBA0A50BD0010ADB778D2613D60BACFBBD8EFCD3C94DB95BC7C4BDD3C18653C3DA0867E3CE8353BBC6005B2BBCA6A02BD9054863C605C053C467F4A3D66A8123DC4229CBC8CFC1D3D4861353C140D1B3D84A9ED3CACD6CBBC58F2E5BC50FDF93C3C26013D20953DBC18B458BC10E969BDF07F27BD2632153D927D4A3D907C51BD783054BD283D27BDD27932BD74B1F83C1E9D713DA021883B9C324A3DDEE737BD108F74BCD8173BBC889D933CF2A058BD08513BBD584B443D80A3BA3C28C414BC50EF28BC"> : tensor<120xf32>) : !torch.vtensor<[120],f32>
    %5 = 